<unk>	0
<s>	0
</s>	0
▁I	-3.66141
'	-3.70855
s	-3.90682
▁#	-4.15785
▁you	-4.20069
▁to	-4.22568
▁@	-4.23482
.	-4.23975
▁the	-4.27688
▁RT	-4.3045
:	-4.3679
▁a	-4.47684
t	-4.55071
,	-4.65404
▁	-4.71769
▁my	-4.73943
!	-4.81536
▁and	-4.85558
▁it	-4.94959
▁me	-4.96794
m	-4.99919
▁for	-5.0349
▁in	-5.07735
▁is	-5.07945
▁of	-5.16496
▁️	-5.17835
▁that	-5.27301
▁on	-5.28763
▁so	-5.30423
▁this	-5.38735
▁be	-5.41934
▁with	-5.64576
?	-5.65511
...	-5.65927
▁love	-5.68589
_	-5.70416
;	-5.72813
▁like	-5.74391
▁but	-5.78912
▁just	-5.80775
▁have	-5.81568
amp	-5.8161
▁can	-5.84623
▁&	-5.85202
▁your	-5.85387
▁i	-5.85916
▁up	-5.90952
▁was	-5.91261
▁at	-5.91908
▁all	-5.96445
▁get	-6.01021
re	-6.06195
▁not	-6.07521
▁are	-6.08794
▁don	-6.08889
▁out	-6.14505
▁we	-6.16084
▁do	-6.17539
▁know	-6.21335
▁day	-6.22328
▁go	-6.28673
▁one	-6.30124
▁when	-6.34957
▁what	-6.36825
▁You	-6.37353
▁good	-6.38211
▁"	-6.39783
▁too	-6.40411
▁he	-6.42697
▁u	-6.42985
d	-6.44152
▁now	-6.44419
▁got	-6.46107
▁-	-6.47034
ll	-6.47069
▁My	-6.485
▁they	-6.48798
▁time	-6.49596
▁about	-6.49679
▁no	-6.51562
▁see	-6.52918
▁The	-6.52999
▁from	-6.53582
-	-6.55436
▁if	-6.57296
▁want	-6.58995
y	-6.60083
▁much	-6.60407
ing	-6.61218
"	-6.62446
▁back	-6.62508
▁need	-6.67533
▁will	-6.68016
!!	-6.68443
ve	-6.6937
▁really	-6.70723
▁today	-6.70915
▁how	-6.71577
▁she	-6.71875
▁more	-6.73207
▁her	-6.74336
▁by	-6.7583
▁A	-6.78998
▁happy	-6.81522
▁thank	-6.82229
▁some	-6.82493
a	-6.826
▁shit	-6.82873
▁people	-6.84923
▁This	-6.86655
ed	-6.88686
▁or	-6.88853
▁been	-6.88877
▁birthday	-6.90057
_:	-6.9011
▁Happy	-6.91189
▁here	-6.92525
▁who	-6.93185
▁It	-6.93188
▁still	-6.93277
▁always	-6.93632
▁miss	-6.9377
▁going	-6.94209
▁2	-6.95086
▁as	-6.96243
▁there	-6.98061
▁,	-6.98696
▁work	-6.99015
▁right	-6.99208
▁lol	-7.01039
▁think	-7.01472
▁make	-7.0164
)	-7.01869
S	-7.02306
▁new	-7.02342
▁an	-7.02416
▁even	-7.02965
e	-7.02971
▁night	-7.02974
▁.	-7.04073
..	-7.04346
▁life	-7.05366
/	-7.05538
▁(	-7.06263
▁never	-7.07257
▁So	-7.08109
▁had	-7.08317
▁thanks	-7.08399
▁would	-7.09288
▁off	-7.09449
I	-7.09989
▁best	-7.10656
▁them	-7.10884
▁why	-7.13786
▁We	-7.14256
▁girl	-7.14422
all	-7.14422
▁only	-7.17065
▁man	-7.17621
▁him	-7.18911
▁wanna	-7.19001
▁come	-7.19361
o	-7.21348
in	-7.22932
▁Thank	-7.23611
▁his	-7.24027
▁When	-7.24346
▁our	-7.24649
er	-7.25235
▁say	-7.25422
i	-7.25432
▁That	-7.26633
n	-7.26791
▁has	-7.27015
▁feel	-7.27232
▁way	-7.27257
▁then	-7.27693
▁hope	-7.28266
▁over	-7.28578
x	-7.29062
▁@_	-7.31422
▁look	-7.31549
▁better	-7.31935
▁wait	-7.32435
▁great	-7.32801
k	-7.3292
▁us	-7.35584
▁last	-7.3595
▁Can	-7.36797
▁take	-7.376
▁baby	-7.38287
▁these	-7.39259
▁ass	-7.39498
▁y	-7.40061
▁gonna	-7.4057
▁tonight	-7.41
th	-7.41373
!!!	-7.41676
▁did	-7.4184
▁If	-7.42308
▁sleep	-7.43026
▁Just	-7.43374
▁w	-7.43432
▁again	-7.43904
▁please	-7.4396
▁follow	-7.44698
▁Love	-7.46241
▁well	-7.46281
▁home	-7.46429
▁being	-7.46781
▁ever	-7.46847
▁tomorrow	-7.46948
▁3	-7.46953
▁ain	-7.4699
▁am	-7.47193
▁!	-7.47208
▁hate	-7.48057
▁let	-7.48647
▁could	-7.48917
▁than	-7.49122
▁watch	-7.49598
▁What	-7.49996
▁down	-7.51081
▁next	-7.51319
▁first	-7.52654
A	-7.5304
▁1	-7.53742
▁morning	-7.53937
▁cute	-7.5405
▁?	-7.5416
▁And	-7.54984
#	-7.56038
▁week	-7.56585
▁Thanks	-7.57541
▁4	-7.58201
▁because	-7.58573
▁someone	-7.58811
▁getting	-7.59025
▁should	-7.59102
▁bad	-7.60344
▁tho	-7.6062
▁already	-7.60818
▁same	-7.61238
▁ya	-7.6165
▁friends	-7.61759
▁year	-7.62104
▁done	-7.63139
▁But	-7.63528
▁days	-7.63869
▁Good	-7.63888
▁im	-7.63906
1	-7.63979
ly	-7.64673
▁real	-7.64928
▁x	-7.64968
▁didn	-7.65012
▁Me	-7.65916
▁game	-7.66783
r	-7.66966
▁thing	-7.67644
▁...	-7.68065
▁keep	-7.68091
▁something	-7.68499
▁beautiful	-7.69451
▁No	-7.70292
▁fuck	-7.70861
h	-7.70985
▁He	-7.71128
▁5	-7.71392
▁said	-7.71861
▁little	-7.71922
z	-7.72847
▁everything	-7.73069
▁their	-7.73707
D	-7.73767
▁after	-7.74048
▁made	-7.74081
▁nigga	-7.74786
2	-7.77329
▁Don	-7.77847
▁soon	-7.78047
▁tell	-7.78184
▁wish	-7.78413
▁Day	-7.7849
▁guys	-7.79203
▁bro	-7.79237
▁Why	-7.79497
▁stop	-7.79899
▁were	-7.80226
▁give	-7.80272
▁world	-7.81358
▁video	-7.81487
▁before	-7.82453
▁though	-7.82509
▁every	-7.8264
2016	-7.83027
▁where	-7.83652
▁All	-7.83786
T	-7.84333
▁friend	-7.84408
▁pretty	-7.84461
E	-7.84882
▁nice	-7.84967
▁gotta	-7.85211
▁doing	-7.85344
3	-7.85376
▁bitch	-7.85621
▁everyone	-7.85716
’	-7.87106
▁oh	-7.87162
▁God	-7.87321
▁She	-7.87455
▁long	-7.8785
▁..	-7.87888
4	-7.88131
The	-7.88206
▁hair	-7.88254
▁To	-7.8908
▁amazing	-7.89158
️	-7.89671
▁heart	-7.9009
▁talk	-7.90135
▁other	-7.90309
▁fun	-7.90329
g	-7.91289
▁gone	-7.91384
▁cause	-7.91575
▁start	-7.92508
M	-7.93236
▁summer	-7.93854
▁yes	-7.94155
▁S	-7.94411
▁sure	-7.94611
K	-7.94623
▁myself	-7.95193
▁very	-7.95373
▁How	-7.95453
▁YOU	-7.96087
B	-7.96566
▁[	-7.96859
▁phone	-7.97846
c	-7.97887
▁won	-7.98178
▁into	-7.99422
▁weekend	-7.99502
▁damn	-7.99701
▁ready	-7.99715
▁things	-8.00002
b	-8.00058
▁many	-8.00369
▁coming	-8.00952
▁person	-8.01
▁play	-8.01317
▁thought	-8.01354
▁show	-8.01419
▁big	-8.02211
▁stay	-8.02515
▁mean	-8.02672
▁yeah	-8.0268
l	-8.02764
▁hard	-8.04067
▁put	-8.04164
▁In	-8.04278
▁find	-8.04659
▁They	-8.05511
on	-8.07102
▁U	-8.07762
▁having	-8.07962
▁tweet	-8.08165
▁school	-8.08429
▁boy	-8.08862
▁Oh	-8.09109
▁most	-8.09359
▁ur	-8.09824
▁old	-8.09932
▁—	-8.10077
▁until	-8.10941
▁such	-8.11896
▁another	-8.11957
▁mom	-8.12062
p	-8.12261
▁okay	-8.12305
▁try	-8.12344
the	-8.12808
▁Not	-8.12899
▁10	-8.13173
C	-8.13176
es	-8.13296
▁any	-8.13434
▁cool	-8.13533
▁watching	-8.13837
gt	-8.13841
▁money	-8.13963
▁looking	-8.1406
▁two	-8.14129
▁actually	-8.14927
▁lot	-8.15139
▁fucking	-8.15243
▁nothing	-8.15545
▁around	-8.16583
▁trying	-8.16629
▁LIVE	-8.16681
▁live	-8.16838
▁6	-8.17653
▁since	-8.18367
▁makes	-8.18467
▁B	-8.19087
▁call	-8.19384
▁those	-8.19773
▁house	-8.19843
▁Twitter	-8.19963
▁b	-8.2088
G	-8.20915
▁Let	-8.21004
▁song	-8.21179
▁New	-8.22103
▁lmao	-8.22284
▁Birthday	-8.22314
▁sad	-8.2252
▁away	-8.22602
▁proud	-8.2272
N	-8.23395
▁Y	-8.23573
▁whole	-8.2361
▁n	-8.23857
▁years	-8.23869
▁true	-8.23914
▁face	-8.24045
▁funny	-8.24106
▁sorry	-8.24278
....	-8.24885
▁Lol	-8.24941
am	-8.25212
▁leave	-8.25257
P	-8.255
▁making	-8.25537
*	-8.25755
▁talking	-8.25809
▁One	-8.261
▁mad	-8.26114
u	-8.26642
▁car	-8.26697
▁Go	-8.27314
▁win	-8.27853
▁7	-8.28168
▁family	-8.28413
▁through	-8.28989
▁crazy	-8.29242
▁looks	-8.29264
▁while	-8.29297
▁THE	-8.29302
▁help	-8.29551
▁girls	-8.29582
▁yo	-8.29714
▁omg	-8.30003
▁own	-8.30007
▁believe	-8.30674
O	-8.30837
▁dad	-8.30862
▁hours	-8.30958
▁*	-8.31095
▁yet	-8.31355
al	-8.31793
▁Like	-8.31799
▁anything	-8.3182
▁bed	-8.31878
▁doesn	-8.32916
▁G	-8.33105
▁hot	-8.33271
▁name	-8.33346
▁T	-8.33423
▁Who	-8.33448
▁eat	-8.33602
▁text	-8.33744
me	-8.33978
▁rn	-8.34139
▁feeling	-8.3415
▁On	-8.34211
▁Now	-8.34258
▁Be	-8.34323
▁head	-8.35055
▁excited	-8.35309
F	-8.35382
▁left	-8.35472
▁Have	-8.35476
▁smile	-8.3571
▁lil	-8.35718
▁For	-8.35942
▁favorite	-8.36024
▁both	-8.3603
▁Hi	-8.36241
▁free	-8.37312
▁food	-8.3738
▁care	-8.37424
▁bc	-8.37618
▁seen	-8.3763
▁does	-8.38124
▁Please	-8.38157
▁mind	-8.3818
▁went	-8.38439
w	-8.38511
▁Get	-8.38601
ers	-8.39486
▁end	-8.39793
ee	-8.39935
R	-8.4025
▁job	-8.40662
ie	-8.41545
▁together	-8.42036
L	-8.42045
▁af	-8.42071
▁niggas	-8.421
▁E	-8.42124
▁guy	-8.4291
▁lit	-8.43239
▁Father	-8.43554
▁wrong	-8.43687
▁swear	-8.43818
J	-8.44302
▁haven	-8.44308
▁its	-8.44518
▁Follow	-8.45216
▁remember	-8.45248
▁bout	-8.45688
v	-8.45847
▁Do	-8.46021
▁welcome	-8.46331
▁Well	-8.46348
and	-8.46522
▁without	-8.46935
▁hit	-8.47481
▁Today	-8.47725
f	-8.47754
▁tired	-8.47789
▁ok	-8.48159
__:	-8.48505
▁music	-8.48785
▁check	-8.48791
▁sweet	-8.48908
▁told	-8.48918
▁babe	-8.49241
▁literally	-8.49766
▁finally	-8.50125
▁Hope	-8.50222
▁might	-8.5026
▁P	-8.50395
▁use	-8.50866
▁season	-8.51242
▁MY	-8.52086
to	-8.52158
▁buy	-8.52217
▁post	-8.52588
▁hell	-8.52831
▁TO	-8.53103
▁else	-8.53443
▁playing	-8.53463
na	-8.53571
j	-8.53676
▁meet	-8.53697
▁C	-8.54235
▁team	-8.54244
▁waiting	-8.54357
▁enough	-8.54493
▁guess	-8.5452
▁movie	-8.5498
7	-8.54994
no	-8.55115
▁Friday	-8.55329
▁hear	-8.55391
▁Your	-8.55638
??	-8.55752
man	-8.55788
]	-8.55831
it	-8.56191
▁forever	-8.56323
▁also	-8.56361
▁Hey	-8.56402
▁ask	-8.57045
is	-8.57243
▁early	-8.57311
▁saw	-8.57518
la	-8.57833
▁ME	-8.58464
▁mine	-8.58826
▁late	-8.58977
▁!!	-8.59088
▁party	-8.59195
▁working	-8.59316
▁Got	-8.59635
▁haha	-8.5993
▁place	-8.59952
▁boo	-8.60406
▁R	-8.60701
▁Yes	-8.60961
▁few	-8.61045
▁nobody	-8.61144
▁came	-8.61553
▁8	-8.61696
▁|	-8.63069
▁:	-8.63103
▁glad	-8.63173
▁AND	-8.63253
▁K	-8.63325
1:	-8.6337
love	-8.63396
▁D	-8.63438
le	-8.6346
▁part	-8.63845
▁anyone	-8.63858
0	-8.63914
▁saying	-8.63928
5	-8.6399
▁far	-8.64187
&	-8.64397
▁god	-8.64726
my	-8.64781
▁must	-8.64834
▁perfect	-8.64953
▁dude	-8.65185
▁dont	-8.65897
▁“	-8.65977
H	-8.66153
▁fine	-8.66327
▁L	-8.66407
▁July	-8.66526
▁black	-8.66591
▁full	-8.66712
▁change	-8.66744
▁forget	-8.66835
▁SO	-8.66955
▁high	-8.67677
▁yourself	-8.6827
▁thinking	-8.68271
▁luck	-8.68494
▁+	-8.68496
▁Never	-8.68782
▁wanted	-8.69005
▁brother	-8.69186
▁lost	-8.69527
▁wasn	-8.69532
▁read	-8.69591
Y	-8.69785
▁anymore	-8.69941
▁yesterday	-8.70196
▁F	-8.70197
16	-8.70292
▁used	-8.70466
▁]	-8.70624
▁There	-8.70628
▁X	-8.70793
▁awesome	-8.70969
▁Sunday	-8.70987
an	-8.7118
▁enjoy	-8.71266
▁till	-8.7173
▁em	-8.71817
▁isn	-8.7212
▁hey	-8.72153
▁O	-8.72297
▁ago	-8.72464
X	-8.72548
8	-8.73242
▁IS	-8.7331
nd	-8.73331
▁somebody	-8.73433
▁dead	-8.73668
▁probably	-8.73912
▁stuff	-8.74109
?!	-8.7493
▁Saturday	-8.75057
▁12	-8.75393
;&	-8.75517
▁times	-8.75911
▁M	-8.7618
▁2016	-8.7672
▁idk	-8.77069
▁later	-8.77771
▁reason	-8.77891
▁LOVE	-8.77984
▁Still	-8.78282
▁Really	-8.78294
▁seeing	-8.7837
▁taking	-8.78547
▁turn	-8.78693
▁fan	-8.78734
▁hurt	-8.7921
▁least	-8.7922
▁Come	-8.79456
▁bit	-8.79579
▁sister	-8.79614
en	-8.79665
da	-8.79705
▁Check	-8.79881
▁See	-8.8012
▁lovely	-8.80344
BeSomebodyMovie	-8.80371
▁9	-8.80468
▁Of	-8.80619
▁kind	-8.8098
▁na	-8.81131
or	-8.81263
▁picture	-8.81406
▁half	-8.81616
▁maybe	-8.81703
▁THIS	-8.81748
▁almost	-8.8202
▁eyes	-8.82207
▁Great	-8.8233
▁room	-8.82334
▁everyday	-8.82349
▁Damn	-8.82359
▁took	-8.82558
▁pic	-8.82827
time	-8.82835
▁move	-8.83126
▁kids	-8.83149
▁once	-8.83243
Do	-8.8325
▁bring	-8.83339
de	-8.83457
▁happen	-8.83459
▁Man	-8.84336
▁goes	-8.84422
▁boys	-8.84753
▁ppl	-8.8484
▁hour	-8.84884
▁break	-8.85
!!!!	-8.85023
▁chill	-8.85058
▁wake	-8.85245
▁point	-8.85311
▁bitches	-8.85494
day	-8.85724
▁found	-8.85816
ma	-8.85953
▁tryna	-8.86246
V	-8.86263
▁single	-8.86273
▁understand	-8.86277
▁support	-8.86636
▁sick	-8.86937
▁re	-8.87428
▁Fuck	-8.87505
▁dream	-8.87737
▁Free	-8.87815
U	-8.88042
▁knew	-8.88288
▁run	-8.88459
▁everybody	-8.88817
ne	-8.88947
▁close	-8.88992
▁weeks	-8.89019
you	-8.89033
▁N	-8.8937
▁Up	-8.89596
▁side	-8.90002
ta	-8.90094
▁course	-8.90246
▁daddy	-8.90265
”	-8.90287
▁month	-8.90397
▁@__	-8.90431
▁Monday	-8.90727
@	-8.90788
▁de	-8.91051
▁following	-8.91087
▁Need	-8.91089
▁Some	-8.91195
▁fr	-8.91203
▁r	-8.9127
▁started	-8.91325
▁asf	-8.91359
20	-8.91434
▁W	-8.91459
▁rest	-8.91483
W	-8.91671
▁via	-8.91791
▁definitely	-8.9199
▁may	-8.92237
▁deserve	-8.92334
▁couldn	-8.92456
▁People	-8.92507
▁/	-8.92512
▁da	-8.92717
▁dog	-8.92957
Me	-8.93018
▁body	-8.9305
▁super	-8.93277
▁These	-8.93433
▁fans	-8.93449
You	-8.93557
▁fall	-8.93932
aa	-8.94144
▁Always	-8.94832
▁alone	-8.95123
▁class	-8.95126
▁snapchat	-8.95245
▁16	-8.96024
▁At	-8.96136
▁cut	-8.96479
▁called	-8.96546
▁Time	-8.96713
▁set	-8.96805
▁20	-8.9705
▁gets	-8.97286
▁moment	-8.97462
▁send	-8.97532
go	-8.97534
EURO	-8.97544
▁Best	-8.97558
of	-8.98004
ch	-8.98108
▁H	-8.98141
▁white	-8.98304
▁news	-8.98355
▁Ima	-8.98378
be	-8.98519
pm	-8.98574
▁top	-8.9876
rd	-8.98845
▁each	-8.9892
el	-8.98927
▁Only	-8.9912
▁g	-8.99335
▁FREE	-8.99346
▁•	-8.99684
▁missed	-8.99929
▁With	-9.00413
▁wouldn	-9.00717
▁different	-9.00799
up	-9.009
eee	-9.00902
▁Yeah	-9.00905
▁Summer	-9.01
▁J	-9.01132
▁either	-9.01418
▁hi	-9.01547
▁Here	-9.01552
▁tweets	-9.01933
▁Where	-9.02169
▁June	-9.02203
▁comes	-9.02453
ry	-9.02685
▁fam	-9.02879
ah	-9.02896
▁Keep	-9.03108
▁beach	-9.03177
▁IN	-9.03314
▁cry	-9.03421
▁pls	-9.03707
▁open	-9.03794
ton	-9.03994
▁needs	-9.0414
▁IT	-9.04198
▁fav	-9.04324
▁listen	-9.04328
6	-9.04352
at	-9.04547
▁trip	-9.04573
Love	-9.04631
▁bae	-9.0506
▁date	-9.05065
ya	-9.05065
▁happened	-9.05139
11	-9.05164
▁ma	-9.0538
▁11	-9.05384
▁boyfriend	-9.05476
▁Watch	-9.05515
My	-9.05648
▁months	-9.05682
with	-9.05923
ToNumber	-9.06092
▁NOW	-9.06282
▁tf	-9.06523
▁straight	-9.06692
▁Morning	-9.06706
▁story	-9.06885
▁OMG	-9.07043
Z	-9.07227
▁problem	-9.07292
▁nah	-9.07402
▁water	-9.0774
▁Play	-9.07784
▁Back	-9.0787
▁worth	-9.07906
▁Night	-9.07934
lo	-9.07992
▁lose	-9.08071
▁kid	-9.08135
▁second	-9.08372
▁wow	-9.08493
▁minutes	-9.0864
▁light	-9.08914
▁bless	-9.08928
us	-9.09017
▁bday	-9.09197
▁wit	-9.0951
▁heard	-9.09847
▁Last	-9.09885
__	-9.09914
▁safe	-9.1039
▁30	-9.10424
▁fast	-9.10456
▁couple	-9.10537
ra	-9.10622
▁past	-9.10651
▁gorgeous	-9.10721
▁Miss	-9.10761
▁snap	-9.10868
do	-9.10897
▁honestly	-9.10916
its	-9.10948
▁GO	-9.11001
▁Someone	-9.11141
▁First	-9.11203
▁hoe	-9.11375
▁Finally	-9.11498
▁words	-9.11507
▁book	-9.11534
ty	-9.1158
son	-9.11667
▁Enjoy	-9.11755
▁beat	-9.11853
▁England	-9.12208
▁die	-9.12217
▁Congrats	-9.1233
▁young	-9.12391
▁wear	-9.12465
10	-9.12484
▁forgot	-9.125
▁pictures	-9.12506
▁Omg	-9.13017
▁kinda	-9.13363
▁appreciate	-9.13402
ro	-9.13482
ka	-9.13484
▁matter	-9.13611
▁cuz	-9.13615
▁PARTY	-9.13628
9	-9.13674
▁forward	-9.14094
▁pay	-9.14161
."	-9.14287
▁which	-9.14298
▁Wow	-9.143
▁broke	-9.14691
▁wonder	-9.14758
▁drink	-9.15045
yy	-9.1509
co	-9.15104
▁sometimes	-9.15111
▁fucked	-9.15424
▁kill	-9.15497
▁mood	-9.15542
▁account	-9.15783
▁bored	-9.15841
lt	-9.16389
so	-9.16622
▁blessed	-9.16825
▁BE	-9.16912
ING	-9.16966
▁Wish	-9.16992
▁stupid	-9.17086
▁wtf	-9.17092
▁Re	-9.17181
▁idea	-9.17217
▁hoes	-9.17409
▁seriously	-9.17499
▁ugly	-9.17616
In	-9.17808
▁Too	-9.17938
▁says	-9.18083
▁Same	-9.18133
3:	-9.18463
▁drive	-9.18674
▁feels	-9.18754
▁pics	-9.18873
▁Our	-9.1903
by	-9.19126
▁voice	-9.19354
▁catch	-9.19487
▁future	-9.19593
▁ON	-9.19622
▁parents	-9.19638
▁Everyone	-9.19731
▁loved	-9.19907
▁wants	-9.20117
▁asleep	-9.20294
▁laugh	-9.20359
aaa	-9.20501
▁wonderful	-9.2054
▁un	-9.20704
▁worst	-9.20769
▁Life	-9.20841
▁Big	-9.21037
▁hand	-9.21193
ness	-9.21218
▁Or	-9.21299
▁games	-9.21321
▁xx	-9.21366
▁Shit	-9.21371
▁Game	-9.21407
▁Will	-9.2144
we	-9.21528
▁lie	-9.21712
▁FOR	-9.21836
▁Had	-9.21902
▁fight	-9.2213
se	-9.22215
te	-9.22366
▁gave	-9.22412
▁woke	-9.23022
▁giving	-9.23036
▁Look	-9.23108
▁v	-9.23356
▁able	-9.23571
▁//	-9.2364
▁Baby	-9.23753
▁sounds	-9.23989
▁means	-9.24218
ar	-9.24267
▁c	-9.2433
▁crying	-9.2438
▁eating	-9.24452
est	-9.24484
▁!!!	-9.2454
xo	-9.24553
▁chance	-9.24634
▁o	-9.24792
out	-9.248
▁15	-9.24886
▁dumb	-9.24899
▁trust	-9.25176
▁weird	-9.25239
▁HAPPY	-9.25246
ley	-9.25349
▁tried	-9.25403
▁line	-9.25424
▁annoying	-9.25459
▁18	-9.2553
▁special	-9.25534
▁walk	-9.2554
▁strong	-9.25633
▁Lmao	-9.25751
▁feelings	-9.25974
▁yea	-9.2601
▁son	-9.26112
▁word	-9.2616
30	-9.26164
▁type	-9.26248
▁photo	-9.26401
▁Been	-9.26413
▁️️	-9.26553
▁=	-9.26563
▁fake	-9.26955
▁NEW	-9.27074
mo	-9.27126
Vine	-9.27528
No	-9.2753
▁makeup	-9.2757
▁gym	-9.27803
▁missing	-9.27874
im	-9.27893
▁fact	-9.28311
▁Was	-9.28354
▁outside	-9.28441
▁act	-9.28513
▁ha	-9.28779
▁tbh	-9.28914
▁link	-9.28984
ca	-9.29247
▁number	-9.29296
▁ride	-9.29325
▁goals	-9.2934
▁DM	-9.29354
▁hang	-9.2958
▁exactly	-9.29613
▁shot	-9.29651
▁ALL	-9.29942
▁less	-9.29975
▁under	-9.30016
▁Take	-9.30192
▁lucky	-9.30301
▁ion	-9.30579
▁chicken	-9.30648
ri	-9.30773
▁bruh	-9.30918
▁twitter	-9.31016
▁smh	-9.3115
▁sa	-9.31171
sh	-9.31229
less	-9.31297
▁nap	-9.31396
▁More	-9.31649
▁during	-9.31649
▁Gotta	-9.31771
▁vote	-9.31921
ey	-9.32062
▁moon	-9.32291
▁asked	-9.32422
life	-9.3258
ke	-9.32782
▁OUT	-9.3331
▁happiness	-9.33363
▁Are	-9.33532
▁yall	-9.33774
▁h	-9.33854
▁OF	-9.33858
▁ily	-9.33945
Day	-9.33968
▁self	-9.34112
▁Out	-9.34262
▁hungry	-9.3447
▁shop	-9.34535
▁cold	-9.34758
▁:)	-9.35086
ies	-9.35098
▁Every	-9.35176
one	-9.35278
▁scared	-9.35362
▁soul	-9.35408
▁red	-9.35554
▁mate	-9.35563
▁Make	-9.35567
▁instead	-9.35585
▁save	-9.35598
▁episode	-9.35738
▁football	-9.35966
▁dm	-9.36053
▁sleeping	-9.36082
▁watched	-9.36238
▁sun	-9.36243
▁deal	-9.3648
▁relationship	-9.36495
▁♫	-9.36559
ni	-9.36592
di	-9.36613
▁ex	-9.36636
▁Orlando	-9.36684
▁dance	-9.36786
▁quick	-9.37221
▁pick	-9.37237
▁movies	-9.37253
▁serious	-9.37311
▁needed	-9.37316
▁sound	-9.37358
▁gon	-9.37514
▁worry	-9.37547
▁Girl	-9.37612
ALDUB	-9.37666
▁Stay	-9.38041
▁father	-9.3816
▁fire	-9.38227
▁rain	-9.3825
▁d	-9.38356
kik	-9.38494
▁Going	-9.38538
ga	-9.38716
.....	-9.39152
as	-9.39173
▁changed	-9.39203
ia	-9.39628
▁drunk	-9.39913
▁Nothing	-9.39918
girl	-9.39926
▁k	-9.40102
???	-9.40207
▁Sorry	-9.40668
yyy	-9.40756
▁aw	-9.40824
▁hahaha	-9.40825
▁hold	-9.40848
▁aren	-9.40875
▁congrats	-9.4097
▁f	-9.40982
YouNow	-9.41014
ha	-9.41057
▁stand	-9.41084
▁starting	-9.41147
▁weather	-9.41204
▁tickets	-9.41253
▁spend	-9.4128
▁cant	-9.41415
▁country	-9.41517
▁pain	-9.41531
▁ft	-9.41543
▁ice	-9.41618
Go	-9.41676
for	-9.41758
ish	-9.41946
ED	-9.4201
▁telling	-9.42155
▁cream	-9.42157
▁stars	-9.42168
▁Right	-9.42356
▁fw	-9.42419
able	-9.42608
▁rt	-9.42712
pic	-9.42752
ja	-9.42841
▁Lebron	-9.42894
▁e	-9.42906
▁short	-9.43078
La	-9.43131
▁As	-9.43185
▁Ain	-9.43348
▁share	-9.43412
▁V	-9.43475
▁21	-9.43607
Team	-9.43755
▁Okay	-9.4383
▁cousin	-9.43842
▁dreams	-9.43969
▁....	-9.44033
▁woman	-9.44077
RT	-9.44222
We	-9.44385
▁dick	-9.44516
▁ones	-9.44529
▁Another	-9.44662
▁Black	-9.44849
▁sit	-9.45041
▁Hello	-9.45122
▁whatever	-9.45159
rs	-9.45172
▁album	-9.45194
▁PLEASE	-9.45233
To	-9.45242
▁Lord	-9.45384
▁easy	-9.45424
ter	-9.45484
lanTwinsNewVideo	-9.45596
▁group	-9.45676
▁Idk	-9.45724
▁lady	-9.45882
king	-9.46135
▁college	-9.46166
▁question	-9.4619
▁living	-9.46293
▁Nice	-9.46337
▁fat	-9.46519
follow	-9.46711
15	-9.46725
▁list	-9.4676
▁running	-9.46855
▁played	-9.46869
TH	-9.46961
▁Beautiful	-9.47215
▁mama	-9.47268
So	-9.47393
▁la	-9.47551
q	-9.47643
▁nights	-9.47752
▁vs	-9.47871
land	-9.48077
▁mf	-9.48106
▁ball	-9.48175
▁respect	-9.48233
▁business	-9.4824
▁19	-9.48303
▁hands	-9.48501
▁learn	-9.48565
xx	-9.48776
▁p	-9.48853
▁concert	-9.48857
▁bought	-9.48976
▁Even	-9.49172
good	-9.49238
▁coffee	-9.49312
ba	-9.49374
▁dinner	-9.49407
▁leaving	-9.49466
▁wearing	-9.49493
▁Ya	-9.49768
▁join	-9.49945
un	-9.50068
ist	-9.50103
▁De	-9.50158
li	-9.50655
▁city	-9.50763
▁dress	-9.50778
▁Want	-9.50802
17	-9.50816
▁retweet	-9.50908
▁Hate	-9.5092
▁Work	-9.51127
~	-9.51187
▁Maybe	-9.51339
eeee	-9.51357
ng	-9.51397
▁front	-9.51459
ii	-9.51508
▁order	-9.51561
▁pizza	-9.51595
▁social	-9.51598
▁From	-9.51755
▁UP	-9.51838
▁busy	-9.51869
▁minute	-9.51898
▁NOT	-9.51991
▁looked	-9.52157
▁women	-9.52787
▁behind	-9.52842
▁sis	-9.52848
▁absolutely	-9.52941
▁plan	-9.52969
▁between	-9.53001
▁Dear	-9.5326
18	-9.53308
▁Real	-9.53416
▁After	-9.53443
▁Video	-9.53481
age	-9.53527
▁ate	-9.53612
boy	-9.53679
▁visit	-9.5377
+	-9.53776
▁BIRTHDAY	-9.53892
▁Its	-9.53903
sa	-9.54086
▁NO	-9.54181
▁agree	-9.54286
▁gift	-9.54309
▁answer	-9.544
▁extra	-9.5454
▁shirt	-9.54649
▁po	-9.54652
ur	-9.54683
▁pool	-9.54736
em	-9.5477
▁Did	-9.54846
▁happens	-9.54914
▁pray	-9.54936
▁listening	-9.54974
2:	-9.55028
▁media	-9.55034
ko	-9.55523
For	-9.55714
▁others	-9.55804
bo	-9.55842
▁Her	-9.55872
▁Everybody	-9.55905
ana	-9.55989
▁child	-9.55992
▁lots	-9.56096
▁drop	-9.56251
per	-9.56278
▁Yo	-9.56481
cha	-9.56555
De	-9.56591
ling	-9.56683
▁Then	-9.56684
▁Ma	-9.57035
dy	-9.57193
▁shut	-9.57217
▁Bitch	-9.5729
▁lunch	-9.57302
ic	-9.57479
▁finish	-9.57483
▁favourite	-9.57489
▁match	-9.57493
▁goal	-9.57599
▁til	-9.57616
NaughtyGras	-9.57678
▁~	-9.57681
▁mouth	-9.57764
▁sex	-9.57817
▁videos	-9.57825
ny	-9.57889
12	-9.58119
▁May	-9.58226
Be	-9.5823
▁Welcome	-9.58256
▁queen	-9.58605
And	-9.58694
▁Getting	-9.58695
▁realize	-9.58767
▁knows	-9.58831
▁goodnight	-9.58946
▁gay	-9.59069
ce	-9.59075
▁finished	-9.59193
ting	-9.59196
▁aww	-9.5926
xxx	-9.59282
▁men	-9.59307
▁Looking	-9.5951
▁joke	-9.59587
▁Watching	-9.59783
ine	-9.6023
▁supposed	-9.60253
?"	-9.60276
▁VIDEO	-9.60471
▁seem	-9.60561
▁plans	-9.60698
Re	-9.60735
aaaa	-9.6111
▁awake	-9.61282
▁mo	-9.61318
but	-9.61412
▁add	-9.61645
▁cat	-9.61686
▁loving	-9.61761
▁About	-9.62127
▁50	-9.62144
▁Niggas	-9.62247
▁Ok	-9.62281
▁angel	-9.62367
▁hella	-9.62448
▁using	-9.62483
▁speak	-9.62492
▁blue	-9.62536
▁bye	-9.62706
▁Thursday	-9.62752
▁anyway	-9.62765
▁Instagram	-9.62871
▁pull	-9.62947
▁lets	-9.62958
▁24	-9.62995
▁truth	-9.63003
▁Sometimes	-9.63044
▁dear	-9.63062
▁ka	-9.63161
Da	-9.63329
▁power	-9.6334
▁against	-9.6338
▁Live	-9.6351
14	-9.63512
▁Nigga	-9.63629
▁Ready	-9.63685
▁Stop	-9.6376
lin	-9.63902
▁Haha	-9.63923
▁alright	-9.6411
ment	-9.64118
he	-9.64348
▁become	-9.64376
▁finding	-9.64636
▁FOLLOW	-9.64645
(	-9.6471
▁inside	-9.64746
▁rather	-9.64821
Periscope	-9.64851
lee	-9.64936
▁pre	-9.65008
▁dark	-9.65017
▁worse	-9.65169
▁pass	-9.65204
Its	-9.65359
▁felt	-9.65396
ang	-9.65528
▁three	-9.65544
▁eye	-9.6569
▁thread	-9.65841
hh	-9.6611
RE	-9.66311
▁clean	-9.66411
▁hurts	-9.66575
con	-9.6658
▁100	-9.66581
▁breakfast	-9.66755
▁reading	-9.66835
▁asking	-9.66945
ho	-9.66954
▁17	-9.66972
▁songs	-9.66987
▁bomb	-9.67004
▁dis	-9.67159
▁Bro	-9.67272
▁art	-9.67273
▁Lil	-9.67353
▁clothes	-9.67362
▁Would	-9.67458
▁mother	-9.67588
It	-9.67648
▁shopping	-9.67675
▁important	-9.67766
ion	-9.67773
▁throw	-9.67804
den	-9.67809
ful	-9.67959
▁message	-9.6806
▁25	-9.68397
▁Goodnight	-9.68451
▁sent	-9.68477
za	-9.68548
▁liked	-9.68693
▁London	-9.68747
▁James	-9.68762
▁cake	-9.68879
▁shower	-9.68948
oo	-9.69075
▁attention	-9.69102
▁low	-9.69104
▁followers	-9.69114
▁promise	-9.69172
▁skin	-9.69173
pe	-9.69377
▁htt	-9.69412
ian	-9.69426
▁sexy	-9.6949
▁reply	-9.69605
▁case	-9.69657
▁laughing	-9.69892
ad	-9.69969
▁round	-9.70055
▁Tuesday	-9.70149
sha	-9.70203
ive	-9.70241
▁Tonight	-9.70258
▁outta	-9.7044
▁calling	-9.70527
▁bet	-9.70583
▁small	-9.7063
▁cover	-9.70718
min	-9.70757
▁middle	-9.70781
▁His	-9.70896
▁app	-9.70942
▁Home	-9.70957
▁grow	-9.70971
▁scary	-9.71005
▁WE	-9.71016
▁weak	-9.71091
On	-9.71251
▁pussy	-9.71332
7:	-9.71431
▁totally	-9.71465
▁Off	-9.71587
▁Everything	-9.71627
jo	-9.71672
sexy	-9.71796
▁lately	-9.71805
▁WITH	-9.71839
art	-9.71914
pa	-9.72023
▁sense	-9.72087
▁meant	-9.72137
▁13	-9.72189
▁cannot	-9.72445
▁update	-9.72521
▁club	-9.72591
Music	-9.72603
▁Ha	-9.72654
▁driving	-9.72684
▁shoot	-9.7272
ity	-9.72942
▁sitting	-9.72974
▁Kyrie	-9.72994
▁Give	-9.73301
▁taken	-9.73338
▁aint	-9.73338
▁finna	-9.73359
▁road	-9.73492
▁smoke	-9.73522
nn	-9.73547
•	-9.73555
oh	-9.73594
▁fuckin	-9.73781
▁sucks	-9.73788
▁tea	-9.73814
▁By	-9.73932
dog	-9.73978
▁bestfriend	-9.74024
▁stuck	-9.74154
▁Cavs	-9.74168
▁including	-9.74269
▁key	-9.74275
Q	-9.74354
▁La	-9.74398
ass	-9.74464
▁fell	-9.74572
▁Know	-9.7476
▁PM	-9.74791
▁sooo	-9.74994
▁store	-9.75032
▁LA	-9.75068
les	-9.751
19	-9.75111
▁shoes	-9.75214
▁beauty	-9.7524
ir	-9.75328
▁hello	-9.75345
▁Next	-9.75368
▁Bruh	-9.7541
not	-9.75422
Life	-9.75497
▁killing	-9.75566
hi	-9.75578
▁THAT	-9.75657
24	-9.75671
▁peace	-9.75697
ap	-9.75735
▁along	-9.75768
▁Netflix	-9.75822
▁killed	-9.75878
▁girlfriend	-9.7599
that	-9.76145
▁RIP	-9.76219
id	-9.76267
like	-9.76272
▁treat	-9.76272
▁bio	-9.76328
▁moving	-9.76349
▁Somebody	-9.7639
▁lowkey	-9.76393
▁dying	-9.76402
13	-9.76476
▁King	-9.7649
can	-9.76573
▁LOL	-9.76594
▁notice	-9.76664
▁sign	-9.76715
▁mins	-9.76721
▁page	-9.76744
▁Should	-9.76808
music	-9.76962
▁Because	-9.77082
▁Very	-9.77088
▁l	-9.77112
▁chat	-9.77117
▁shooting	-9.77121
way	-9.77199
▁heat	-9.77231
▁Such	-9.77277
▁wild	-9.77279
▁Queen	-9.77547
11:	-9.77646
▁Congratulations	-9.77717
mi	-9.77871
▁shouldn	-9.77981
▁online	-9.78032
▁Finding	-9.78232
▁Cause	-9.78337
21	-9.78391
▁bag	-9.78464
▁nails	-9.78482
▁evening	-9.78491
▁rock	-9.78549
▁thru	-9.7863
▁block	-9.78721
▁deep	-9.78802
▁tour	-9.78854
▁Think	-9.78866
▁jealous	-9.78909
▁dat	-9.79094
She	-9.79237
▁happening	-9.79252
▁min	-9.79293
ki	-9.79372
▁emoji	-9.79618
▁Tell	-9.79641
▁boring	-9.79722
▁mess	-9.79769
yo	-9.79858
▁truly	-9.7989
▁stage	-9.79937
ig	-9.80001
▁ah	-9.802
▁GET	-9.80313
▁♡	-9.80364
if	-9.80412
▁Am	-9.8042
▁Wednesday	-9.80588
▁chocolate	-9.80664
▁US	-9.8074
ation	-9.80759
po	-9.80872
▁ahead	-9.80901
▁Facebook	-9.8095
mon	-9.81141
mar	-9.8115
▁Pretty	-9.812
▁final	-9.81285
line	-9.81299
▁UK	-9.81327
▁Jesus	-9.81344
▁lay	-9.81386
baby	-9.81398
▁sum	-9.81418
▁World	-9.81435
▁paid	-9.8146
▁slow	-9.81578
▁Trump	-9.81615
UK	-9.81778
▁seems	-9.82071
▁touch	-9.82081
ner	-9.82091
she	-9.82093
▁pa	-9.82397
▁putting	-9.82432
Harry	-9.82452
▁color	-9.82523
▁Mr	-9.82531
▁Party	-9.82647
▁hopefully	-9.82681
▁suck	-9.82716
▁acting	-9.82841
▁door	-9.83037
▁ticket	-9.83183
▁poor	-9.83255
▁en	-9.83335
hhh	-9.83337
▁con	-9.83348
▁sing	-9.8342
▁soooo	-9.83482
ff	-9.83535
▁lying	-9.83619
ck	-9.83746
▁meeting	-9.83816
▁THANK	-9.83849
▁ima	-9.83904
▁starts	-9.8403
▁Say	-9.84118
▁subscribe	-9.84135
▁pop	-9.84141
▁JULY	-9.8419
▁)	-9.842
▁Snapchat	-9.84284
▁daughter	-9.84289
▁sleepy	-9.84313
▁**	-9.84401
▁Dory	-9.84416
▁lmfao	-9.84421
▁imma	-9.84454
▁player	-9.84494
▁An	-9.84495
▁Being	-9.84555
▁LIKE	-9.84616
▁se	-9.84646
▁biggest	-9.84732
▁#1	-9.84822
King	-9.84831
LA	-9.84904
▁kiss	-9.84986
▁babies	-9.84997
▁cutie	-9.85092
▁spot	-9.85253
▁Feel	-9.85277
▁TONIGHT	-9.85281
▁town	-9.85412
▁luv	-9.85438
just	-9.85548
▁Imma	-9.85614
▁Music	-9.85639
▁singing	-9.85723
▁earlier	-9.85723
▁card	-9.85762
▁bar	-9.85816
Follow	-9.85885
▁Guess	-9.86006
iam	-9.86048
Just	-9.8607
▁star	-9.86123
▁especially	-9.86152
▁imagine	-9.86213
▁Curry	-9.86505
▁Wanna	-9.86544
back	-9.86589
ti	-9.86707
All	-9.8672
▁Harry	-9.86722
Styles	-9.86758
▁Gonna	-9.8693
bi	-9.87014
▁homie	-9.87052
uk	-9.8707
▁"@	-9.87198
Man	-9.87201
▁track	-9.87296
chi	-9.87325
▁photos	-9.87325
▁14	-9.87333
▁wife	-9.87373
▁piece	-9.87387
jay	-9.87451
▁caught	-9.87499
▁Wait	-9.8755
don	-9.87606
▁BEADS	-9.87656
▁takes	-9.87674
▁series	-9.87798
▁positive	-9.87852
▁j	-9.87873
▁feet	-9.87944
▁step	-9.8796
ted	-9.88093
▁Also	-9.88202
▁drinking	-9.8829
ger	-9.88326
va	-9.8837
ENG	-9.88371
com	-9.88471
▁wedding	-9.88546
ster	-9.88693
▁Dad	-9.88711
▁High	-9.88782
▁winning	-9.88899
23	-9.88908
▁longer	-9.88916
Im	-9.8893
▁WATCH	-9.88974
▁EU	-9.89084
▁EVERYONE	-9.89182
▁IM	-9.89296
▁Mo	-9.89486
▁air	-9.89557
▁attitude	-9.89628
▁dry	-9.89668
▁style	-9.89859
ler	-9.899
▁level	-9.89958
▁trash	-9.90003
ul	-9.9001
▁cutest	-9.90023
▁green	-9.90037
ak	-9.90163
▁America	-9.90195
▁Listen	-9.9023
▁City	-9.90265
lu	-9.90268
▁True	-9.90285
▁kick	-9.90308
▁thoughts	-9.90371
▁choice	-9.90373
▁death	-9.90387
live	-9.904
Mo	-9.9045
▁Na	-9.90549
▁selling	-9.90695
▁Glad	-9.90802
▁vibes	-9.91021
▁choose	-9.91128
Ma	-9.91159
▁ugh	-9.91186
▁turned	-9.91267
▁bby	-9.91286
ky	-9.9131
▁weight	-9.91443
▁DAY	-9.91508
=	-9.91511
mer	-9.91571
▁vacation	-9.91658
▁Literally	-9.91674
gg	-9.91733
▁DO	-9.91782
▁Da	-9.91839
▁shift	-9.91917
▁entire	-9.91965
Al	-9.91983
▁Nobody	-9.92056
▁adorable	-9.92087
▁near	-9.92167
▁spent	-9.92222
yyyy	-9.92257
▁thankful	-9.92272
▁Warning	-9.92368
▁died	-9.92393
▁petty	-9.92431
25	-9.92492
5:	-9.92511
▁Co	-9.92608
more	-9.92613
il	-9.92643
summer	-9.92692
▁flowers	-9.92702
side	-9.92742
▁hug	-9.92816
▁knowing	-9.92828
▁sharing	-9.9285
▁fit	-9.92881
▁Show	-9.9303
▁Tomorrow	-9.93141
RIPChristina	-9.93287
ge	-9.93359
are	-9.93439
▁ht	-9.93571
▁workout	-9.93659
▁tattoo	-9.93867
▁walking	-9.93879
▁soo	-9.94068
▁ill	-9.94211
▁waking	-9.94245
gi	-9.94269
ary	-9.94384
▁Boy	-9.94409
▁dawg	-9.94454
▁buddy	-9.94628
▁memories	-9.94662
ate	-9.94673
▁available	-9.94707
zz	-9.94734
▁holiday	-9.95039
▁SOMEBODY	-9.95054
▁human	-9.95119
▁boss	-9.95146
▁lord	-9.95149
▁stomach	-9.95183
▁everywhere	-9.95196
ex	-9.95298
▁St	-9.95466
▁Chris	-9.95594
▁dory	-9.95618
▁YOUR	-9.95644
▁shows	-9.95677
▁alive	-9.95759
13:	-9.95868
▁kno	-9.96006
os	-9.9606
▁mi	-9.96074
___:	-9.96093
Of	-9.96176
▁ring	-9.96318
▁flight	-9.96412
▁sc	-9.96436
▁Park	-9.9651
fa	-9.96654
▁prayers	-9.96658
▁somewhere	-9.96776
▁Amazing	-9.96837
▁fave	-9.96857
Queen	-9.9698
Jay	-9.9711
▁August	-9.97155
nt	-9.9738
▁count	-9.97398
▁oomf	-9.9742
▁Red	-9.97476
▁fly	-9.97477
▁Super	-9.97565
ft	-9.97627
▁ba	-9.9763
▁screen	-9.97825
▁1.	-9.97849
▁handle	-9.97858
Brexit	-9.97864
▁quite	-9.97881
▁Warriors	-9.97959
▁ho	-9.98175
▁legs	-9.98187
▁texting	-9.98211
12:	-9.9841
MTVAwardsStar	-9.98457
▁upset	-9.98477
Na	-9.98517
Co	-9.9854
▁control	-9.98563
IN	-9.98634
NBAFinals	-9.98657
▁ko	-9.98708
▁sm	-9.98728
happy	-9.98756
Happy	-9.98821
▁test	-9.98947
▁Z	-9.9899
▁sky	-9.99002
ER	-9.99073
▁roll	-9.99096
ay	-9.99102
▁double	-9.99151
▁anybody	-9.99206
!!!!!	-9.99248
porn	-9.99319
▁OITNB	-9.99405
well	-9.99407
▁Aww	-9.99438
▁Girls	-9.99473
▁Jo	-9.99517
▁calls	-9.99603
▁expect	-9.99615
▁Nah	-9.99623
▁Beach	-9.99712
night	-9.99726
▁afternoon	-9.99756
▁momma	-9.99887
▁WHAT	-10.0009
▁dope	-10.0026
▁Hell	-10.003
Up	-10.0031
▁tweeting	-10.0034
▁none	-10.005
▁jus	-10.0052
▁broken	-10.0074
▁showing	-10.0088
han	-10.0103
That	-10.0107
▁(@	-10.0123
▁taste	-10.0132
10:	-10.015
▁Al	-10.0166
▁bf	-10.0172
▁realized	-10.0172
sss	-10.0185
▁females	-10.0188
▁Trying	-10.0199
▁state	-10.02
▁Much	-10.0204
▁plz	-10.0227
▁view	-10.0227
car	-10.0236
▁LEVELS	-10.0237
00	-10.0243
▁Retweet	-10.0248
um	-10.0254
▁tv	-10.0266
Is	-10.0269
▁himself	-10.027
▁fix	-10.0274
Real	-10.0276
▁conjuring	-10.0278
▁ladies	-10.028
▁Sweet	-10.0296
Le	-10.0296
▁fresh	-10.0301
ney	-10.0309
ji	-10.031
▁female	-10.0323
▁blood	-10.0326
lil	-10.0327
50	-10.0331
▁Fr	-10.0336
▁princess	-10.0349
▁grown	-10.035
23:	-10.035
▁co	-10.035
▁lives	-10.0353
au	-10.0353
▁sunshine	-10.0354
▁basketball	-10.0354
ber	-10.0355
▁TOO	-10.0361
ron	-10.0361
▁interesting	-10.0372
▁di	-10.0376
ina	-10.0377
▁AM	-10.0379
▁House	-10.0381
red	-10.0385
▁ANIMAL	-10.0391
▁Severe	-10.0391
▁Thunderstorm	-10.0391
her	-10.0393
io	-10.0403
▁ARE	-10.0405
▁fair	-10.0408
ham	-10.0408
▁Ro	-10.0408
▁exam	-10.0413
▁possible	-10.0415
▁doubt	-10.043
boobs	-10.043
▁0	-10.0441
▁DURING	-10.0447
▁worried	-10.0449
▁huge	-10.0463
▁YES	-10.0468
▁ONE	-10.047
▁40	-10.0473
▁celebrate	-10.0479
▁interview	-10.048
▁pissed	-10.0496
▁age	-10.0498
▁Little	-10.0505
NowPlaying	-10.0516
▁blessing	-10.0516
AM	-10.0523
▁Ladies	-10.0541
▁English	-10.0542
▁TV	-10.0544
iran	-10.0548
▁performance	-10.0549
▁gun	-10.0551
▁te	-10.0553
Girl	-10.0557
▁Way	-10.057
▁tears	-10.0572
que	-10.0574
▁regret	-10.0576
ooo	-10.0576
Mar	-10.0579
thMonthsary	-10.0585
▁posted	-10.0586
off	-10.0587
.#	-10.0591
▁VIEWING	-10.0609
▁22	-10.0615
▁bus	-10.0621
▁CONTEST	-10.063
▁hoping	-10.0635
▁??	-10.0635
One	-10.0638
Big	-10.0642
▁credit	-10.0647
▁tag	-10.0656
▁mum	-10.0657
men	-10.0661
▁blog	-10.0671
▁box	-10.0674
▁Con	-10.0674
▁Better	-10.0674
▁tan	-10.0676
▁figure	-10.0676
▁experience	-10.0684
Live	-10.0685
win	-10.0686
der	-10.0687
▁Feeling	-10.0695
▁confused	-10.0696
elle	-10.0696
▁LeBron	-10.0705
ame	-10.0706
▁Over	-10.0712
▁Could	-10.0719
▁Waiting	-10.0724
▁Having	-10.0725
lan	-10.0731
▁avi	-10.0735
▁Team	-10.0735
▁struggle	-10.0736
▁due	-10.0742
▁YouTube	-10.0743
▁Italy	-10.0755
vi	-10.0761
▁Le	-10.0765
get	-10.0768
▁pack	-10.077
ze	-10.079
che	-10.0791
via	-10.0793
wood	-10.0796
▁Hot	-10.0798
▁smell	-10.0799
▁Made	-10.0816
▁brought	-10.0834
cat	-10.0837
▁messages	-10.084
kay	-10.0857
▁cheese	-10.0861
ball	-10.0871
big	-10.0881
▁followed	-10.0881
▁wanting	-10.0885
▁Mexico	-10.089
▁camp	-10.0894
▁keeps	-10.0895
▁beer	-10.0909
▁huh	-10.091
ous	-10.091
▁Florida	-10.091
▁Ion	-10.0911
▁btw	-10.0926
▁cook	-10.0934
▁BEST	-10.0938
▁code	-10.095
▁train	-10.0952
what	-10.0954
rr	-10.0957
AskNashAndHayes	-10.0972
▁honey	-10.0977
He	-10.0983
▁slept	-10.0987
▁France	-10.0997
▁Justin	-10.1009
▁Fathers	-10.1011
▁random	-10.1018
▁park	-10.1018
Ja	-10.102
Days	-10.1028
▁Looks	-10.1031
Lo	-10.1031
▁smart	-10.1031
ph	-10.1032
real	-10.1033
▁fantastic	-10.1035
▁TL	-10.1052
▁Remember	-10.1054
ac	-10.1057
▁Bad	-10.1057
▁idc	-10.1058
▁grandma	-10.107
head	-10.1073
kin	-10.1075
▁BIG	-10.1085
▁stress	-10.1087
tits	-10.1091
▁simple	-10.1092
What	-10.1114
ally	-10.1124
$	-10.1131
▁lame	-10.1134
ez	-10.1136
team	-10.114
▁blocked	-10.1141
▁Car	-10.1148
bu	-10.1168
▁daily	-10.1168
▁Bo	-10.1172
▁write	-10.1175
▁lazy	-10.1177
▁NBA	-10.1181
▁freaking	-10.1186
▁York	-10.1189
▁practice	-10.119
40	-10.1191
4:	-10.1192
▁married	-10.1196
▁office	-10.1199
▁scene	-10.1205
▁Vegas	-10.1206
▁fighting	-10.1208
▁bb	-10.121
▁falling	-10.1221
Official	-10.1222
▁Ugh	-10.1223
▁gf	-10.1236
▁twice	-10.124
▁anytime	-10.1247
▁ni	-10.1247
06	-10.1251
▁dirty	-10.1255
▁Honestly	-10.127
wa	-10.1296
▁Conjuring	-10.1298
▁officially	-10.1299
cy	-10.1303
▁pro	-10.131
▁main	-10.131
▁players	-10.1313
▁Done	-10.1321
TV	-10.1324
▁White	-10.1327
▁Long	-10.1335
work	-10.1338
▁Didn	-10.134
▁San	-10.134
TeenChoice	-10.1344
▁grade	-10.1347
▁legit	-10.1363
15:	-10.1364
▁ta	-10.1375
▁saved	-10.1375
ash	-10.1375
▁selfie	-10.1381
▁staying	-10.1386
▁Seriously	-10.1391
▁Ass	-10.1398
▁finals	-10.1408
▁Bar	-10.1409
Summer	-10.1423
▁Mind	-10.1436
▁Most	-10.1437
▁husband	-10.1438
Ra	-10.1442
---&	-10.1455
ol	-10.1456
▁gold	-10.1466
queen	-10.1468
ong	-10.1475
▁John	-10.1476
▁squad	-10.1476
22	-10.1478
ok	-10.1481
▁Two	-10.1483
▁sir	-10.1488
This	-10.1488
▁letting	-10.1488
▁plus	-10.149
▁nasty	-10.1493
▁space	-10.1497
cho	-10.1507
▁million	-10.151
Jo	-10.1514
▁Cleveland	-10.152
▁drama	-10.1523
Ta	-10.1536
VeranoMTV	-10.1539
▁Green	-10.1539
▁gives	-10.1546
▁Daddy	-10.1546
▁Bae	-10.1561
star	-10.1561
your	-10.1562
▁talked	-10.1564
▁history	-10.1574
▁School	-10.1577
▁️️️	-10.1584
▁enjoying	-10.1611
▁Michael	-10.1613
New	-10.1618
▁Finna	-10.162
▁basically	-10.1621
▁100%	-10.1629
▁Sleep	-10.1633
!"	-10.1634
▁AT	-10.1656
je	-10.1666
▁darkest	-10.167
pornh	-10.1676
▁fool	-10.1685
Miss	-10.1692
▁Direction	-10.1693
▁dogs	-10.1716
▁wine	-10.1717
▁enlighten	-10.1727
▁graduation	-10.1732
▁horrible	-10.1741
▁def	-10.1746
▁barely	-10.175
▁born	-10.1752
9:	-10.1756
▁ran	-10.1757
bs	-10.1758
▁channel	-10.1767
bar	-10.1768
▁$	-10.177
▁swimming	-10.1772
▁Forever	-10.1773
▁Join	-10.1778
▁hmu	-10.1783
▁complete	-10.1787
AL	-10.1791
ite	-10.1795
▁Christina	-10.18
▁conversation	-10.1804
GameofThrones	-10.1805
▁bullshit	-10.1814
thick	-10.1818
▁Louis	-10.1825
▁craving	-10.1838
▁Something	-10.1844
▁booty	-10.1847
▁Yea	-10.185
▁IG	-10.1856
▁headache	-10.1858
▁Haven	-10.187
▁fa	-10.187
▁film	-10.1871
▁hilarious	-10.1873
uh	-10.1876
▁paper	-10.1891
▁Must	-10.1897
over	-10.1897
▁Texas	-10.1899
Black	-10.19
▁fathers	-10.191
▁whenever	-10.1918
▁continue	-10.1923
▁||	-10.1934
▁losing	-10.1938
iii	-10.1939
hhhh	-10.194
▁questions	-10.1945
Spiegel	-10.1952
▁dancing	-10.1962
▁MUCH	-10.1964
▁Bitches	-10.1964
▁jk	-10.1965
ever	-10.1968
▁Put	-10.1973
Ro	-10.1975
▁band	-10.1981
▁greatest	-10.1984
▁nope	-10.1992
▁Sam	-10.1995
▁yay	-10.2
▁incredible	-10.2001
new	-10.2001
▁king	-10.2007
▁problems	-10.2015
▁Top	-10.2018
Lil	-10.202
▁hasn	-10.2026
▁Mar	-10.2027
▁Exactly	-10.2038
▁mfs	-10.2038
▁Perfect	-10.204
▁dropped	-10.2049
WE	-10.2052
▁turning	-10.2053
14:	-10.2062
▁crush	-10.2062
Good	-10.2065
▁waste	-10.2067
!!?	-10.2067
Your	-10.2076
ent	-10.2077
▁Rest	-10.208
▁talented	-10.208
▁books	-10.2081
▁stopped	-10.2085
▁street	-10.21
ps	-10.2105
▁cup	-10.2106
eeeee	-10.2106
▁terrible	-10.2112
BETAwards	-10.2112
▁sending	-10.2117
Don	-10.212
▁handsome	-10.2137
▁obsessed	-10.2146
▁amo	-10.215
▁nose	-10.2156
▁ST	-10.2156
dusky	-10.2165
▁acc	-10.2171
dd	-10.2173
▁per	-10.2175
Get	-10.2182
sta	-10.2192
▁mention	-10.2195
ari	-10.2196
▁seconds	-10.2202
▁outfit	-10.2204
▁enjoyed	-10.2205
▁pride	-10.2209
▁service	-10.2209
▁surprise	-10.221
▁schedule	-10.222
ks	-10.2222
▁score	-10.2226
▁version	-10.2234
▁GOOD	-10.224
▁Heart	-10.2246
▁savage	-10.2253
▁Wales	-10.2261
▁completely	-10.2263
▁HAS	-10.2273
▁grateful	-10.2278
▁decided	-10.2295
▁children	-10.2309
▁delete	-10.2317
▁JUST	-10.2322
▁Any	-10.2326
▁kept	-10.2326
▁loud	-10.2333
▁Taylor	-10.2334
▁SATURDAY	-10.2335
▁Young	-10.2336
curves	-10.2337
ant	-10.2339
▁healthy	-10.2343
ford	-10.2354
zi	-10.2361
21:	-10.2369
▁buying	-10.2391
▁Call	-10.2399
▁Guys	-10.2408
town	-10.2415
▁HAVE	-10.2417
▁Hopefully	-10.2427
SA	-10.2433
ita	-10.2439
pin	-10.244
▁Q	-10.2442
▁le	-10.2447
▁Sa	-10.2447
27	-10.245
▁Anyone	-10.245
▁difference	-10.2451
▁Both	-10.2454
light	-10.2455
100	-10.2459
▁bra	-10.2462
su	-10.2465
▁facts	-10.2468
▁bottle	-10.2471
▁South	-10.2476
▁Bet	-10.2477
et	-10.2478
▁keeping	-10.25
bb	-10.2508
ow	-10.2508
22:	-10.251
this	-10.2511
▁jump	-10.2514
▁relate	-10.2515
▁Those	-10.2518
ann	-10.2518
▁growing	-10.2518
▁situation	-10.252
SOS	-10.2528
ju	-10.2534
▁Star	-10.2547
▁HERE	-10.2554
▁works	-10.2559
▁GOD	-10.2561
▁info	-10.2561
▁reach	-10.2561
▁Wtf	-10.2563
anna	-10.2566
90	-10.2573
bbw	-10.2575
▁Family	-10.2578
ray	-10.2579
▁23	-10.2582
rk	-10.2583
▁Missing	-10.2589
▁comment	-10.2591
▁Aw	-10.2601
▁pink	-10.2601
▁major	-10.2604
house	-10.2608
ella	-10.2615
▁worked	-10.2615
▁present	-10.262
▁loyal	-10.2622
▁camera	-10.2625
▁BUT	-10.2625
Mr	-10.2625
▁mix	-10.2628
LY	-10.2628
▁folks	-10.2631
▁church	-10.2642
▁stream	-10.2644
▁tough	-10.2645
▁Lo	-10.2649
▁older	-10.2654
fan	-10.2654
▁CAN	-10.2654
▁West	-10.2658
▁success	-10.2661
▁passed	-10.2666
▁race	-10.2671
▁:(	-10.2678
▁Awesome	-10.2682
ona	-10.2683
▁FUCK	-10.2687
gh	-10.2688
eng	-10.2693
▁pleasure	-10.2703
World	-10.2707
curvy	-10.2709
▁Yay	-10.271
ST	-10.2718
▁anywhere	-10.2722
▁bank	-10.2723
▁Money	-10.2733
bra	-10.274
▁gas	-10.2743
▁fail	-10.275
▁Pre	-10.2751
▁Lovely	-10.2766
▁eyebrows	-10.2768
black	-10.2774
▁Down	-10.2787
▁OH	-10.2805
Ya	-10.2815
▁event	-10.2823
▁stick	-10.2828
▁Ka	-10.283
free	-10.2833
▁blow	-10.2843
▁rude	-10.285
▁anyways	-10.2851
girls	-10.2852
vo	-10.2853
chubby	-10.2854
26	-10.287
▁tight	-10.2871
Orlando	-10.2881
▁warm	-10.2881
▁except	-10.2883
▁Allah	-10.2909
▁size	-10.2917
ou	-10.2918
Like	-10.2924
Not	-10.2924
our	-10.2928
With	-10.2929
▁calm	-10.2931
▁Disney	-10.2933
▁HE	-10.2938
▁suppose	-10.2947
▁smiling	-10.2949
▁trouble	-10.2952
▁Un	-10.2963
▁Might	-10.2964
▁Sad	-10.2965
old	-10.2976
▁heaven	-10.2977
▁Ta	-10.2983
▁ended	-10.2987
ise	-10.299
▁energy	-10.2991
▁travel	-10.2991
8:	-10.2992
ku	-10.2997
▁DREAM	-10.2998
▁feed	-10.3004
▁floor	-10.3008
▁–	-10.3012
zy	-10.3015
God	-10.3019
▁honest	-10.3025
du	-10.3025
▁Mom	-10.3026
FC	-10.3032
▁View	-10.3032
▁email	-10.3033
▁awkward	-10.3036
book	-10.3036
▁training	-10.3042
Can	-10.3046
▁bigger	-10.305
nu	-10.3053
ery	-10.3056
▁Blue	-10.3057
ria	-10.306
▁pair	-10.3067
▁fab	-10.307
▁voted	-10.3094
28	-10.3096
voluptuous	-10.3104
era	-10.3106
▁Bless	-10.3109
▁noticed	-10.311
▁inspiration	-10.311
▁goin	-10.3114
world	-10.3118
16:	-10.312
▁Steph	-10.3121
▁hotel	-10.3124
▁shots	-10.3128
Sa	-10.3133
▁Drake	-10.3141
▁AF	-10.3141
▁Awww	-10.3142
▁explain	-10.3145
Ka	-10.3148
▁Hahaha	-10.3154
▁quit	-10.3156
▁American	-10.3175
realwomen	-10.3175
Free	-10.3181
kk	-10.3185
▁official	-10.3186
▁Add	-10.3196
▁Already	-10.3197
ME	-10.3202
▁Mood	-10.3206
ala	-10.3206
24:	-10.3209
▁slide	-10.3213
▁blame	-10.3221
▁El	-10.3234
aaaaa	-10.3237
FF	-10.3239
▁company	-10.3254
ali	-10.3256
▁emotional	-10.3258
▁Em	-10.3265
young	-10.3265
▁Ho	-10.3267
▁sell	-10.3269
HappyBirthday	-10.3269
▁Woke	-10.3271
▁earth	-10.3273
▁Mad	-10.328
▁twin	-10.3299
▁learned	-10.3301
▁babes	-10.3302
▁cried	-10.3307
▁breaking	-10.3314
▁across	-10.3318
▁ke	-10.3323
ker	-10.3331
ville	-10.3339
▁teeth	-10.3347
17:	-10.3347
▁surprised	-10.3357
tic	-10.3369
ten	-10.3378
▁thick	-10.3385
▁currently	-10.3386
▁hearing	-10.3387
si	-10.3396
▁advice	-10.3403
▁sh	-10.3411
▁personal	-10.3426
▁Head	-10.3434
▁secret	-10.3438
▁sale	-10.344
▁Food	-10.3445
▁GOT	-10.3448
▁spending	-10.3449
ping	-10.345
ru	-10.3454
oooo	-10.3462
BE	-10.3468
pi	-10.3472
▁Hard	-10.3474
▁usually	-10.348
▁Ever	-10.3482
BB	-10.3486
▁trade	-10.3488
▁opinion	-10.3497
ssss	-10.3502
ated	-10.3509
lie	-10.351
▁Proud	-10.3521
Sha	-10.3527
▁decide	-10.3528
▁beyond	-10.3536
▁ship	-10.3541
▁reality	-10.355
▁Ah	-10.3561
▁period	-10.3566
▁Cool	-10.357
ren	-10.3579
▁NEVER	-10.3579
▁leg	-10.358
▁Ne	-10.3593
▁brothers	-10.3603
▁trynna	-10.3604
▁ignore	-10.3609
▁Tom	-10.3622
▁Single	-10.3625
▁juice	-10.3629
▁iPhone	-10.3629
▁Rock	-10.3641
eezy	-10.3642
▁public	-10.3646
29	-10.3646
▁fault	-10.3647
ard	-10.3655
lyn	-10.3659
Time	-10.3663
▁Almost	-10.3665
▁pants	-10.3671
sky	-10.3677
▁dads	-10.3683
▁hurry	-10.3686
CA	-10.369
▁Before	-10.3694
food	-10.3695
cam	-10.3705
bee	-10.3707
bby	-10.3708
▁hehe	-10.3709
▁Cute	-10.3712
▁normal	-10.3712
▁Since	-10.3713
▁Fucking	-10.372
33	-10.3724
▁filter	-10.3725
▁milk	-10.3725
▁tha	-10.3727
▁Po	-10.3729
az	-10.3732
!#	-10.3734
▁stories	-10.3736
▁holding	-10.3743
miss	-10.3745
▁Se	-10.3755
FOLLOW	-10.3757
▁David	-10.3761
tin	-10.3763
▁moves	-10.3764
▁@1	-10.3764
▁precious	-10.3766
6:	-10.3767
▁record	-10.3767
ani	-10.3773
▁header	-10.3777
▁wings	-10.3779
▁BET	-10.3782
▁session	-10.3788
bri	-10.379
▁praying	-10.3795
let	-10.3797
▁fear	-10.3797
▁Once	-10.3799
▁Crazy	-10.3803
▁lips	-10.3808
key	-10.3809
▁manager	-10.381
▁happiest	-10.381
▁Iceland	-10.382
▁button	-10.3821
▁closer	-10.3824
▁HOUSE	-10.3831
travel	-10.3833
▁apart	-10.3839
ES	-10.3842
▁shout	-10.3844
▁Jay	-10.3852
tha	-10.3855
▁OR	-10.3864
▁blast	-10.3865
qui	-10.3869
OITNB	-10.3872
▁senior	-10.3877
▁si	-10.3877
ek	-10.3882
▁soccer	-10.3896
▁thankyou	-10.39
▁Bring	-10.3901
▁prom	-10.3901
▁character	-10.3908
ped	-10.3908
wi	-10.3908
▁wassup	-10.3909
PH	-10.391
▁Kevin	-10.3914
▁STOP	-10.392
▁Old	-10.3925
▁brilliant	-10.3929
▁Gone	-10.3932
nie	-10.3939
Baby	-10.394
rose	-10.395
▁Them	-10.3952
▁clear	-10.3955
▁Dude	-10.3971
Boy	-10.398
▁Seconds	-10.3982
▁gotten	-10.3984
▁curry	-10.3985
▁shame	-10.3986
ism	-10.3987
▁unless	-10.399
▁accurate	-10.3995
ble	-10.3996
▁ilysm	-10.4
▁themselves	-10.4001
▁bright	-10.4016
tch	-10.4016
▁bunch	-10.4034
US	-10.4035
▁chick	-10.4039
▁natural	-10.4039
▁fish	-10.4041
Di	-10.4042
▁snaps	-10.4047
▁hype	-10.4053
▁Bout	-10.4057
▁LADIES	-10.4057
dee	-10.406
▁hat	-10.406
▁Definitely	-10.4066
▁rich	-10.407
▁puppy	-10.4073
▁supporting	-10.4079
▁Tweet	-10.4084
▁foot	-10.4092
▁ILYSM	-10.4095
▁sha	-10.4099
ane	-10.411
▁90	-10.411
▁Di	-10.4112
▁thx	-10.4114
▁release	-10.4118
▁effort	-10.4129
hot	-10.4136
▁brand	-10.4137
▁ty	-10.4142
▁Season	-10.4153
ye	-10.4155
▁kidding	-10.4164
Ki	-10.4166
▁eh	-10.4169
style	-10.417
Nation	-10.4176
▁often	-10.418
▁mu	-10.4181
play	-10.4183
▁Late	-10.4186
▁talent	-10.4191
boo	-10.4196
▁Win	-10.4196
▁known	-10.4201
▁$1000	-10.4207
▁subs	-10.4208
har	-10.4209
▁amount	-10.421
▁neck	-10.4212
▁State	-10.4215
▁sisters	-10.4225
val	-10.4232
▁actual	-10.4234
▁row	-10.4236
▁Send	-10.4236
▁beginning	-10.4245
too	-10.4246
Mc	-10.4246
▁bud	-10.4255
▁Dr	-10.4258
ALDUBIYAMin	-10.4266
▁11:11	-10.4266
▁truck	-10.4268
▁brown	-10.4271
▁lookin	-10.4286
ward	-10.4287
▁challenge	-10.4288
gar	-10.429
▁Amen	-10.4297
▁nun	-10.43
▁el	-10.431
▁Fun	-10.4311
official	-10.4317
▁xxx	-10.432
▁tu	-10.4325
field	-10.4333
▁Catch	-10.4334
lon	-10.4335
RIP	-10.4336
▁Ireland	-10.4336
▁Help	-10.4338
▁Bron	-10.4342
ada	-10.435
beauty	-10.4352
▁shall	-10.4354
▁offer	-10.436
If	-10.4366
▁soft	-10.4367
ab	-10.4379
ning	-10.4379
▁Mac	-10.4381
But	-10.4382
▁complain	-10.4383
▁classes	-10.4383
▁Apple	-10.4385
Li	-10.4399
hair	-10.4402
LL	-10.4402
fe	-10.4402
▁WAS	-10.4406
▁selfies	-10.4407
fashion	-10.4414
ela	-10.442
py	-10.4425
▁wall	-10.443
ci	-10.4443
▁hitting	-10.445
▁st	-10.4455
▁FaceTime	-10.4458
▁given	-10.447
low	-10.4471
▁Te	-10.4473
▁DJ	-10.4477
Car	-10.4477
▁nervous	-10.4485
▁poppin	-10.4493
▁action	-10.4503
af	-10.4506
▁awful	-10.451
▁Chicago	-10.4511
▁jam	-10.4511
▁Alex	-10.4518
Repost	-10.4522
▁attack	-10.4524
▁Sun	-10.4524
▁Coming	-10.4525
▁Messi	-10.4529
▁obviously	-10.4533
DJ	-10.4536
▁French	-10.4539
▁war	-10.454
▁Talk	-10.4549
▁lemme	-10.455
▁appreciated	-10.4552
▁aye	-10.4553
dan	-10.4556
tor	-10.4563
▁places	-10.4563
een	-10.4564
▁didnt	-10.457
60	-10.4576
▁gang	-10.4582
▁Which	-10.4587
LE	-10.4589
▁burn	-10.4591
▁winner	-10.4594
▁edit	-10.4601
▁artist	-10.4612
▁Blessed	-10.4618
ight	-10.462
Fan	-10.4624
PM	-10.4632
ik	-10.4634
ice	-10.4638
▁Thought	-10.4639
got	-10.4644
▁bringing	-10.4656
▁saving	-10.4658
▁friendship	-10.4662
▁bff	-10.4668
▁RETURNED	-10.4671
▁wide	-10.4673
▁shine	-10.468
▁wondering	-10.4692
ep	-10.4693
️️	-10.4702
▁Thankyou	-10.471
▁decision	-10.471
▁study	-10.4713
▁brain	-10.4715
▁bath	-10.4716
pro	-10.4723
▁certain	-10.4728
▁teach	-10.4729
best	-10.4737
Con	-10.4739
xoxo	-10.4742
▁deserves	-10.4752
▁airport	-10.476
ung	-10.4764
▁KNOW	-10.4765
▁Friends	-10.4766
▁Jack	-10.4766
▁@___	-10.477
▁afraid	-10.4772
ken	-10.4777
▁MOST	-10.478
ence	-10.4781
▁Europe	-10.4784
▁four	-10.4787
▁Lmfao	-10.4788
ara	-10.4793
vin	-10.4798
Ba	-10.48
▁everytime	-10.4808
Euro	-10.481
▁Cheers	-10.4811
▁WHO	-10.4813
05	-10.4817
216	-10.4823
▁weed	-10.4827
▁Soon	-10.4828
Out	-10.4831
▁Kim	-10.4831
gal	-10.4835
▁pregnant	-10.4838
Mi	-10.4845
▁Dont	-10.4845
uu	-10.485
▁absolute	-10.4855
ical	-10.4862
cc	-10.4864
▁quote	-10.488
▁Ex	-10.488
▁nail	-10.4882
▁Holy	-10.4883
▁Ba	-10.4884
Hi	-10.4885
▁added	-10.4887
▁Song	-10.4891
▁Swear	-10.4891
▁Jordan	-10.4894
wan	-10.4896
Girls	-10.4896
ena	-10.4896
99	-10.4897
▁dms	-10.4904
▁Thinking	-10.4905
▁posting	-10.4906
▁cheer	-10.4906
▁joy	-10.4911
▁heavy	-10.4918
▁Pa	-10.4924
▁Kinda	-10.4925
▁pure	-10.4931
▁slay	-10.4931
▁Turn	-10.494
Ke	-10.494
▁invite	-10.4954
use	-10.496
▁helping	-10.4967
▁Find	-10.4967
▁needa	-10.4969
nnn	-10.4984
▁cr	-10.4986
lay	-10.4988
▁Loving	-10.4989
▁indeed	-10.5
▁Smh	-10.5007
▁hospital	-10.5013
▁swim	-10.5018
marie	-10.5028
Ty	-10.5033
▁North	-10.5034
▁internet	-10.5035
▁congratulations	-10.5037
35	-10.5038
▁awe	-10.5041
▁PROJECT	-10.5043
▁grind	-10.5044
np	-10.5048
▁Does	-10.505
▁Germany	-10.5055
▁uncle	-10.5057
▁Dead	-10.506
▁pal	-10.5061
▁annoyed	-10.5064
Pro	-10.5065
▁clearly	-10.5069
FxckTheNeighbors	-10.5078
▁draw	-10.508
port	-10.5082
▁Future	-10.5093
07	-10.5094
▁lead	-10.51
Choice	-10.5102
CopaAmerica	-10.5105
ris	-10.5105
yn	-10.5105
pp	-10.5106
▁Absolutely	-10.5113
▁CO	-10.5114
sen	-10.5131
fi	-10.5131
anne	-10.5137
▁sooooo	-10.5139
▁RSVP	-10.514
▁gosh	-10.514
▁Mc	-10.5146
▁interested	-10.5148
▁throwing	-10.5154
▁sugar	-10.516
IT	-10.5161
▁suit	-10.5161
▁excuse	-10.5165
▁writing	-10.5166
▁walked	-10.517
NY	-10.5173
▁emojis	-10.5175
fu	-10.5178
▁Art	-10.518
▁weren	-10.5184
▁remind	-10.5187
▁gettin	-10.5188
▁latest	-10.5191
Trump	-10.5193
▁apparently	-10.5202
tay	-10.5204
▁Try	-10.5208
▁Imagine	-10.5213
ating	-10.5215
▁Nope	-10.522
▁USA	-10.5222
▁NEED	-10.5228
▁Working	-10.5235
▁Hit	-10.5238
▁opening	-10.5242
▁cos	-10.5242
▁hashtag	-10.5249
Bo	-10.525
▁project	-10.5256
▁prove	-10.5259
▁doe	-10.526
▁faith	-10.526
▁cheers	-10.5264
▁magic	-10.5267
Kay	-10.5268
▁lies	-10.5276
▁coach	-10.5277
▁cavs	-10.5283
▁shake	-10.5283
▁Went	-10.5289
El	-10.529
▁mini	-10.5293
▁California	-10.5297
uuu	-10.5297
▁blessings	-10.5299
▁bottom	-10.5304
02	-10.5309
▁note	-10.5322
▁Paul	-10.5328
aw	-10.5329
▁Again	-10.5331
Ri	-10.5334
gu	-10.5336
▁Pray	-10.5341
▁fingers	-10.5341
▁loss	-10.5343
des	-10.5347
mal	-10.5363
▁Goodmorning	-10.5363
tee	-10.5365
run	-10.5365
▁hanging	-10.5367
▁TYPE	-10.5367
Ne	-10.5369
59	-10.5369
▁tweeted	-10.5376
45	-10.5382
▁exciting	-10.5385
▁legend	-10.5388
▁Mark	-10.5389
▁sub	-10.5392
▁ITS	-10.5392
▁accept	-10.5397
▁hero	-10.5402
▁speaking	-10.5415
▁Link	-10.5424
▁follows	-10.543
board	-10.5436
hu	-10.5444
▁sports	-10.5449
▁.....	-10.5451
Ni	-10.5454
who	-10.5454
van	-10.5461
▁27	-10.5463
▁NY	-10.5464
▁DONT	-10.5464
▁return	-10.5465
▁hating	-10.5473
▁arm	-10.5484
▁11:30	-10.5487
▁sauce	-10.5489
▁TIME	-10.5492
▁Update	-10.5493
ette	-10.5496
▁field	-10.55
▁focus	-10.5501
▁bear	-10.5508
BTS	-10.5509
▁Excited	-10.5512
Oh	-10.5517
▁Kanye	-10.5518
Pride	-10.5521
32016	-10.5522
mp	-10.5527
▁wishing	-10.5529
▁ending	-10.5531
▁quiet	-10.5553
▁lo	-10.5554
▁Lu	-10.5555
▁sat	-10.5558
breaktheinternet	-10.5566
tion	-10.5568
▁grab	-10.557
▁vibe	-10.5571
Red	-10.5572
rrr	-10.5576
▁moved	-10.558
ade	-10.558
▁existing	-10.558
ran	-10.5589
▁ways	-10.5593
▁LMAO	-10.5593
▁gain	-10.5608
2.	-10.5614
▁!!!!	-10.5614
▁quality	-10.5615
▁plane	-10.562
end	-10.5627
▁Strippers	-10.5633
fuck	-10.5634
og	-10.5637
▁Hair	-10.5637
▁AMAZING	-10.5639
rt	-10.5643
ance	-10.5643
▁Joe	-10.5651
pretty	-10.5652
▁Weekend	-10.5652
▁hurting	-10.5655
tu	-10.5659
▁Leave	-10.5666
▁model	-10.5674
▁beef	-10.5676
▁PROUD	-10.568
▁glasses	-10.5686
▁wash	-10.569
▁Spain	-10.5694
▁Currently	-10.5694
▁push	-10.5694
▁website	-10.5696
nia	-10.5697
03	-10.5703
▁angry	-10.5705
▁seat	-10.5712
▁hood	-10.5721
▁Miami	-10.5724
eva	-10.5727
▁switch	-10.5729
▁deserved	-10.5731
▁profile	-10.5741
▁Start	-10.5742
▁moments	-10.5743
Thank	-10.5745
ON	-10.5746
▁radio	-10.5748
▁flat	-10.5748
▁allowed	-10.5755
eh	-10.5759
▁moms	-10.5761
▁EVER	-10.5763
fer	-10.5768
▁judge	-10.5769
mark	-10.5772
NA	-10.5773
▁Ke	-10.578
Se	-10.5788
Art	-10.5788
▁piss	-10.5789
▁REAL	-10.5797
ring	-10.5801
▁cooking	-10.5803
▁yu	-10.5805
▁youuu	-10.5811
▁Phone	-10.5813
▁smoking	-10.5821
0:	-10.5823
▁hun	-10.5829
nna	-10.5837
▁GA	-10.5843
At	-10.5846
ship	-10.5853
▁sold	-10.5854
▁goodbye	-10.5857
▁rap	-10.586
▁Ra	-10.5864
cute	-10.5868
▁Sha	-10.5869
ach	-10.5876
▁iTunes	-10.5876
▁island	-10.5877
SS	-10.5881
Young	-10.5883
Ha	-10.5886
▁Boo	-10.5889
▁Ben	-10.5892
▁table	-10.5897
▁five	-10.5897
ture	-10.5905
▁Praying	-10.5911
▁lip	-10.5914
80	-10.5918
FathersDay	-10.5921
▁role	-10.5923
fun	-10.5924
▁community	-10.5925
▁repeat	-10.5925
......	-10.5926
▁childish	-10.5928
Ho	-10.593
▁crack	-10.5932
▁court	-10.5935
▁ro	-10.5938
▁bread	-10.5939
Kiss	-10.5941
▁paying	-10.595
▁thinks	-10.5955
▁cuddle	-10.5966
▁awww	-10.597
▁families	-10.5971
▁Tired	-10.5971
98:	-10.5972
▁LIT	-10.5972
bre	-10.5976
▁ATL	-10.5978
▁‘	-10.5985
▁boat	-10.5985
▁Him	-10.5996
▁shitty	-10.6001
rie	-10.6003
ttt	-10.6006
97	-10.6008
Only	-10.6009
▁deleted	-10.601
▁window	-10.601
▁NIGHT	-10.6012
▁journey	-10.6016
▁bike	-10.6019
▁tournament	-10.602
▁ruin	-10.6025
▁Learn	-10.6026
▁Dis	-10.6027
▁invited	-10.6029
▁messed	-10.6031
▁WHY	-10.6036
▁Pro	-10.6038
show	-10.6038
ier	-10.604
Game	-10.6041
▁massage	-10.6055
▁holy	-10.6068
▁Brown	-10.6069
▁appreciation	-10.6073
▁Book	-10.6075
▁Yall	-10.6076
OR	-10.6077
49	-10.6078
▁title	-10.608
▁Dan	-10.6085
▁law	-10.6087
Show	-10.6089
▁80	-10.6099
▁26	-10.6106
▁Pat	-10.6114
▁wave	-10.6117
ila	-10.6118
die	-10.6119
▁ig	-10.612
▁Vi	-10.6124
09	-10.6126
god	-10.6126
▁TIL	-10.6141
▁fries	-10.6141
▁stayed	-10.6145
▁ordered	-10.6145
▁“@	-10.615
▁delicious	-10.615
▁chilling	-10.6152
▁Paris	-10.6156
MY	-10.6159
▁mark	-10.616
▁above	-10.6161
▁issue	-10.6164
▁mall	-10.6166
▁Text	-10.6166
▁non	-10.617
ew	-10.6176
tra	-10.6177
▁talkin	-10.6182
SU	-10.6184
▁Tryna	-10.6188
▁lonely	-10.6194
▁steal	-10.6195
▁yup	-10.6202
ob	-10.6207
▁ROOFTOP	-10.6215
tal	-10.6217
BreakTheInternet	-10.6219
▁crap	-10.6221
97:	-10.6223
MA	-10.6224
▁bestie	-10.6225
▁rip	-10.6226
▁gr	-10.6226
▁giveaway	-10.6231
▁disappointed	-10.6236
ut	-10.624
bad	-10.624
▁Beyoncé	-10.624
ola	-10.6251
▁laying	-10.6254
▁bouta	-10.6255
cal	-10.6264
▁grad	-10.6266
aka	-10.6268
▁traffic	-10.6275
▁issues	-10.6278
op	-10.6279
▁Bc	-10.6281
▁MVP	-10.6284
▁OK	-10.6285
▁Atlanta	-10.6285
▁original	-10.629
▁raining	-10.6291
▁Ur	-10.6293
▁Wishing	-10.6293
▁Vote	-10.6297
Rock	-10.6299
▁bi	-10.6303
gan	-10.6304
Sam	-10.6305
▁TODAY	-10.6308
▁bih	-10.6308
now	-10.631
hey	-10.6312
Tour	-10.6314
▁midnight	-10.6315
▁harder	-10.6317
▁blunt	-10.6317
▁vid	-10.633
▁sometime	-10.6339
tie	-10.634
Who	-10.6346
▁al	-10.6349
▁miles	-10.6351
Ju	-10.6354
▁famous	-10.6355
▁remain	-10.6355
▁wins	-10.6356
▁FEMALE	-10.6359
only	-10.636
▁exams	-10.6363
An	-10.6365
34	-10.6366
—	-10.6369
▁nerves	-10.6373
will	-10.6379
▁fruit	-10.6379
▁Lake	-10.6386
▁10/10	-10.6387
▁planning	-10.639
▁ja	-10.6397
Vi	-10.64
Cam	-10.64
len	-10.6402
Bar	-10.6404
▁jokes	-10.6404
▁Probably	-10.6405
▁Facts	-10.6405
▁teacher	-10.6406
ure	-10.6406
▁fabulous	-10.6408
▁solo	-10.6408
▁reaction	-10.6409
18:	-10.641
▁Photo	-10.6411
uck	-10.6418
▁points	-10.6418
▁#2	-10.6419
▁turns	-10.6419
DM	-10.6425
▁Rt	-10.6428
▁WILL	-10.6434
▁Making	-10.6436
▁stfu	-10.6437
gen	-10.6442
▁argue	-10.6444
▁voting	-10.6445
32	-10.6448
ika	-10.6448
▁Full	-10.6451
▁price	-10.6453
▁gunna	-10.6453
▁Trust	-10.6454
Pa	-10.6455
▁Shout	-10.646
▁BACK	-10.6467
how	-10.6468
▁sea	-10.6474
▁expensive	-10.6486
▁hip	-10.6486
▁sweetest	-10.65
▁Cali	-10.6502
▁showed	-10.6507
▁Rihanna	-10.6513
▁Couldn	-10.6515
▁ga	-10.6517
▁Actually	-10.6523
▁ALWAYS	-10.6527
cia	-10.6529
▁reminds	-10.6529
▁Lit	-10.6531
▁awards	-10.6531
▁Pls	-10.6534
down	-10.6534
▁Bestfriend	-10.6537
▁lake	-10.6537
▁cha	-10.654
CO	-10.6543
tan	-10.6543
▁victims	-10.6544
▁stunning	-10.6544
▁Things	-10.6555
nes	-10.6556
▁threw	-10.6557
▁ashamed	-10.6557
▁charger	-10.6558
▁begin	-10.6558
55	-10.6559
▁shade	-10.656
▁sweetie	-10.656
▁arrived	-10.6571
▁2.	-10.6581
▁details	-10.6583
▁Post	-10.6584
▁wishes	-10.6589
▁spirit	-10.6595
▁ends	-10.6595
▁Island	-10.6602
▁pops	-10.6603
▁decent	-10.6607
▁names	-10.6609
▁arms	-10.661
▁breaks	-10.6615
▁Mi	-10.6617
sey	-10.6618
fo	-10.6618
▁PA	-10.6619
▁fu	-10.662
Dee	-10.662
▁ffs	-10.6622
▁meal	-10.6623
family	-10.6627
▁hide	-10.6628
▁Mfs	-10.663
▁$1,000	-10.6632
Pretty	-10.6635
they	-10.6636
▁Ca	-10.6637
▁site	-10.6638
▁awhile	-10.6641
▁local	-10.6642
▁Week	-10.6649
GO	-10.665
▁WANT	-10.6652
ATLRoofTopParty	-10.6657
Let	-10.666
▁freak	-10.666
▁apartment	-10.6663
▁wifi	-10.6663
▁Lets	-10.6663
▁award	-10.6672
01	-10.6673
▁tl	-10.6676
Best	-10.6676
▁cash	-10.6682
▁picked	-10.6686
▁texts	-10.6689
AH	-10.6689
box	-10.669
▁chase	-10.6694
VE	-10.6696
▁friendly	-10.6697
ding	-10.67
Star	-10.6707
▁45	-10.671
▁drinks	-10.672
▁Ty	-10.6724
▁third	-10.6728
hr	-10.6728
vy	-10.6729
Chris	-10.6729
▁ridiculous	-10.6731
Lu	-10.6732
ries	-10.6741
▁spoil	-10.6741
ver	-10.6748
vs	-10.6749
Night	-10.675
▁evil	-10.6752
▁FB	-10.6754
▁SHIT	-10.6755
▁coo	-10.6758
Now	-10.6764
▁league	-10.6764
br	-10.6765
▁Jun	-10.6766
▁Spanish	-10.6778
Un	-10.6782
▁Sounds	-10.6783
rock	-10.6783
▁MORE	-10.6788
kar	-10.679
▁bother	-10.6798
▁ONLY	-10.6802
▁NYC	-10.6805
TA	-10.6808
Ar	-10.6811
▁shawty	-10.6812
DA	-10.6813
▁September	-10.6818
law	-10.6821
▁yep	-10.6823
cher	-10.6825
▁build	-10.6829
gay	-10.6831
▁Dream	-10.6832
fit	-10.6841
▁dang	-10.6842
48	-10.6842
lia	-10.6847
nic	-10.6851
▁Houston	-10.6852
MMVA	-10.6855
Bi	-10.6859
▁bs	-10.6861
▁ne	-10.6864
▁24/7	-10.6865
▁lyrics	-10.6866
▁Part	-10.6867
▁playlist	-10.6873
▁National	-10.6874
▁GRAS	-10.6877
▁pet	-10.688
▁usual	-10.6881
08	-10.6885
▁Chill	-10.6886
▁BITCH	-10.69
▁partner	-10.6911
ile	-10.6914
▁land	-10.692
▁lock	-10.6923
▁Won	-10.6924
▁rid	-10.6926
▁station	-10.6933
▁solid	-10.6934
88	-10.694
led	-10.6941
▁Year	-10.695
▁LIQUOR	-10.6951
01:	-10.6958
▁marry	-10.6958
▁HENNA	-10.696
▁abt	-10.6962
▁contact	-10.6964
ston	-10.6966
▁TATS	-10.6974
ties	-10.6975
ggy	-10.6977
▁Club	-10.6982
pre	-10.6983
▁Fire	-10.6986
dj	-10.6986
mari	-10.6987
▁salty	-10.6994
▁bathroom	-10.6996
▁Ar	-10.6997
rn	-10.7014
ud	-10.7019
▁corner	-10.702
tv	-10.7024
▁finger	-10.7029
▁pulled	-10.703
▁learning	-10.7032
▁correct	-10.7034
▁Bi	-10.7035
Yo	-10.7038
▁ahh	-10.7046
▁sort	-10.7049
▁cus	-10.705
ama	-10.7054
▁Yesterday	-10.7055
little	-10.7056
lar	-10.7058
▁dropping	-10.7061
shop	-10.7068
▁easily	-10.7073
▁charge	-10.7074
room	-10.7075
ooooo	-10.7076
bae	-10.7076
gs	-10.7088
▁taught	-10.7092
▁fixed	-10.7098
▁cast	-10.7099
▁mistake	-10.7101
▁Canada	-10.7107
▁doin	-10.7112
fc	-10.7117
yyyyy	-10.7123
▁ruined	-10.7126
ns	-10.7128
▁Men	-10.7129
ura	-10.713
▁GATE	-10.7133
▁Cha	-10.7135
How	-10.7135
▁cross	-10.7136
▁plays	-10.7136
04	-10.7136
ww	-10.7139
▁orange	-10.714
▁collection	-10.7153
▁29	-10.7157
▁shy	-10.7158
▁naked	-10.7161
▁wont	-10.7167
▁rough	-10.7169
38	-10.7171
▁WIN	-10.7174
▁MISS	-10.7176
▁episodes	-10.7176
TheReal	-10.7177
del	-10.7178
▁Bye	-10.7182
▁Seeing	-10.7186
▁Internet	-10.7186
▁SEE	-10.7194
▁Radio	-10.7196
nicole	-10.7204
▁whoever	-10.7205
▁filled	-10.7207
▁nd	-10.721
37	-10.7215
▁SC	-10.7216
▁VOTE	-10.7217
WAL	-10.7229
▁etc	-10.7231
▁flying	-10.7235
mor	-10.7235
▁national	-10.7238
19:	-10.7242
▁board	-10.7244
▁parties	-10.7251
tour	-10.7257
▁Doing	-10.726
▁hop	-10.7261
▁crossed	-10.7263
▁health	-10.7267
▁knock	-10.7269
▁ASAP	-10.7271
▁article	-10.7272
▁nowhere	-10.7273
Te	-10.7274
▁Pride	-10.728
▁views	-10.728
▁Wonder	-10.7281
▁Cam	-10.7293
99:	-10.7293
SE	-10.7298
yu	-10.7309
▁kitchen	-10.7311
▁Taking	-10.7313
▁sp	-10.7314
▁six	-10.7318
▁bloody	-10.7322
?!?	-10.7324
angel	-10.7325
▁Jackson	-10.7326
▁goodness	-10.7326
long	-10.7331
▁RETWEET	-10.7332
daddy	-10.7332
list	-10.7334
hhhhh	-10.7337
▁dating	-10.7338
Si	-10.7338
DE	-10.734
iz	-10.734
▁lang	-10.7342
pan	-10.7343
take	-10.7346
▁Buy	-10.7355
lynn	-10.7355
Back	-10.7356
Rose	-10.7362
USA	-10.7365
▁Starbucks	-10.7368
3.	-10.7371
HappyFathersDay	-10.7372
Will	-10.7374
princess	-10.7375
▁British	-10.7378
▁liking	-10.7378
THE	-10.738
▁Media	-10.7382
▁sweetheart	-10.7382
▁kindly	-10.7384
▁trending	-10.7386
ال	-10.7392
▁shorts	-10.7393
▁HOW	-10.7396
ALDUBForTheLove	-10.7399
▁disgusting	-10.74
bin	-10.7403
▁RE	-10.7408
ize	-10.7412
▁speech	-10.7418
▁catching	-10.7418
▁haters	-10.7421
▁Open	-10.7424
blue	-10.7433
▁ki	-10.7436
▁28	-10.7436
rry	-10.744
blog	-10.7442
▁COME	-10.7443
kh	-10.7444
▁Mike	-10.7445
isa	-10.7445
Please	-10.7448
ALLin	-10.7455
▁bird	-10.7458
▁mane	-10.7459
é	-10.746
News	-10.7468
ale	-10.747
mc	-10.7472
▁nephew	-10.7475
san	-10.7477
▁Eat	-10.7478
▁FIREWORKS	-10.7478
Sunday	-10.7479
▁Donald	-10.748
▁riding	-10.7484
Bri	-10.7487
53	-10.7488
▁Goals	-10.7489
▁spread	-10.7489
Po	-10.749
▁Ja	-10.749
ue	-10.7492
ual	-10.7492
▁Luke	-10.7495
°	-10.7498
▁Fa	-10.7499
▁drawing	-10.7506
▁CDT	-10.7514
▁Feels	-10.7522
▁career	-10.7523
69	-10.7523
▁Snap	-10.7525
▁towards	-10.7531
▁uh	-10.7532
▁cam	-10.7541
▁Draymond	-10.7541
▁comments	-10.7547
▁funniest	-10.7551
▁mommy	-10.7556
▁Took	-10.7556
▁Mexican	-10.7558
home	-10.7559
NO	-10.7559
▁Su	-10.7564
▁appointment	-10.7565
sos	-10.7565
▁comfortable	-10.7566
▁Has	-10.7567
▁motivation	-10.7569
nnnn	-10.7573
▁storm	-10.7573
▁BABY	-10.7574
nae	-10.7582
▁graduate	-10.7585
chat	-10.7592
▁involved	-10.7593
dis	-10.7596
Em	-10.7601
shi	-10.7602
▁glass	-10.7612
▁niece	-10.7612
▁Ryan	-10.7619
▁TY	-10.7619
▁Funny	-10.7624
Too	-10.7626
tty	-10.7626
▁2015	-10.7626
▁planned	-10.7628
▁closed	-10.7638
▁hearts	-10.7643
uff	-10.7648
Lee	-10.7651
▁tall	-10.7652
**	-10.7664
▁Mu	-10.7667
▁worries	-10.7671
▁changing	-10.7672
▁respond	-10.7672
mel	-10.7673
..."	-10.7673
▁Wild	-10.7675
▁alarm	-10.7678
▁pe	-10.7686
▁Ga	-10.7692
▁exist	-10.7693
▁Argentina	-10.7696
tive	-10.7699
lit	-10.77
bel	-10.7702
▁FUCKING	-10.7704
▁negative	-10.7705
ix	-10.7712
body	-10.7716
city	-10.7717
▁cop	-10.7721
ide	-10.7724
face	-10.7726
SO	-10.7729
▁Thrones	-10.773
▁Especially	-10.7735
▁COMING	-10.7735
▁60	-10.774
▁Power	-10.7745
chu	-10.7745
▁Lowkey	-10.775
sun	-10.776
▁nearly	-10.7761
▁Tf	-10.7765
cu	-10.7769
ano	-10.7773
ip	-10.7776
▁►	-10.7777
ERS	-10.7777
LoveIsland	-10.7779
band	-10.778
▁chest	-10.7782
▁cookies	-10.7784
▁z	-10.7787
hy	-10.7788
▁cheat	-10.7789
▁blonde	-10.7799
▁easier	-10.7803
▁signed	-10.7803
31	-10.7807
Or	-10.7815
▁result	-10.7816
▁response	-10.7816
▁cousins	-10.7818
kim	-10.782
heart	-10.782
▁yr	-10.7824
▁Starting	-10.7831
aj	-10.7831
▁Shop	-10.7833
TO	-10.7837
Friday	-10.7838
▁helped	-10.784
83	-10.7845
▁baseball	-10.7846
▁Movie	-10.7848
▁LIFE	-10.7849
▁texted	-10.785
▁SHE	-10.7855
46	-10.7864
By	-10.7864
NiallOfficial	-10.7868
▁Fan	-10.7869
gue	-10.7869
Ga	-10.787
ai	-10.7873
▁delivery	-10.7875
Du	-10.7876
tri	-10.7885
▁stock	-10.7893
▁Friend	-10.7894
Ca	-10.7895
96	-10.7897
pop	-10.79
▁{	-10.7901
▁crew	-10.7901
▁SUBSCRIBE	-10.7903
▁salad	-10.7903
pt	-10.7906
app	-10.7909
Blue	-10.7915
▁reminder	-10.7916
▁hangout	-10.7916
ef	-10.7917
SM	-10.7918
▁IF	-10.792
ando	-10.7923
Super	-10.7925
▁Prayers	-10.7927
▁wrote	-10.7927
▁Kodak	-10.7929
▁Till	-10.7929
ado	-10.7938
some	-10.7939
war	-10.7939
CE	-10.7939
ito	-10.7942
nee	-10.7947
look	-10.7947
▁locked	-10.7953
ized	-10.796
▁Enter	-10.7964
▁Nick	-10.7967
▁Matt	-10.7969
▁lights	-10.797
39	-10.7975
▁Rose	-10.7979
ask	-10.7981
▁breath	-10.7986
PS	-10.7986
▁Found	-10.7986
98	-10.7993
▁silly	-10.7998
Tweet	-10.8
▁200	-10.8006
▁Si	-10.8007
Got	-10.8009
days	-10.801
|	-10.8011
▁Li	-10.8013
DO	-10.8014
▁Lost	-10.8016
▁option	-10.8017
PrayForOrlando	-10.8027
▁CHECK	-10.8027
▁relax	-10.8027
Her	-10.8029
▁ten	-10.803
zo	-10.8033
IS	-10.8037
ID	-10.8038
▁Aye	-10.8045
▁difficult	-10.8046
GA	-10.8049
▁Adam	-10.805
▁process	-10.8053
AR	-10.8054
▁tips	-10.8055
▁ear	-10.8056
▁Playing	-10.8061
▁police	-10.8069
▁member	-10.8071
▁humble	-10.8071
▁ang	-10.8076
4.	-10.808
▁successful	-10.8081
▁Read	-10.8082
CK	-10.8098
▁admire	-10.8098
▁hugs	-10.8104
why	-10.8105
▁standing	-10.8106
▁graduated	-10.8106
▁youu	-10.8119
AS	-10.8119
▁results	-10.812
▁Class	-10.8121
lly	-10.8121
sweet	-10.8121
TY	-10.8125
Iam	-10.8128
Pre	-10.8135
▁cap	-10.8138
▁happier	-10.8149
▁Low	-10.8149
▁Street	-10.815
▁active	-10.8153
▁trap	-10.8154
▁status	-10.8155
▁purpose	-10.8155
▁owe	-10.8158
lock	-10.816
????	-10.816
▁fashion	-10.8165
▁checking	-10.8172
▁tip	-10.8172
▁laughed	-10.8174
▁din	-10.8181
game	-10.8181
▁Jon	-10.8184
77	-10.8189
▁regular	-10.8195
▁darling	-10.8195
▁streets	-10.8204
▁Cup	-10.8204
LIVE	-10.8211
▁reasons	-10.8213
have	-10.8217
kee	-10.8218
▁skills	-10.8219
▁butter	-10.8223
▁prefer	-10.8225
▁prolly	-10.8226
▁Gucci	-10.824
St	-10.824
25:	-10.8245
▁fill	-10.8247
▁mis	-10.8249
▁building	-10.8249
▁Du	-10.8254
▁brighten	-10.8256
money	-10.8261
Ru	-10.8262
▁review	-10.8262
Ko	-10.8264
▁Tu	-10.8271
▁Bu	-10.8277
▁alot	-10.8279
ld	-10.828
▁Brexit	-10.8291
▁flower	-10.8295
▁Wake	-10.8295
▁Boys	-10.8307
iiii	-10.8315
▁mixtape	-10.8319
London	-10.8323
▁flag	-10.8325
▁dressed	-10.8325
Gu	-10.8326
see	-10.8327
may	-10.8327
lic	-10.8332
▁SM	-10.8332
Win	-10.8338
dad	-10.8344
▁Kill	-10.8344
▁anniversary	-10.8349
rah	-10.8352
▁SHOW	-10.8358
▁Golden	-10.8359
park	-10.8359
▁Coffee	-10.836
act	-10.8361
▁perform	-10.8363
▁battle	-10.8364
▁adult	-10.8364
▁peep	-10.8367
▁sweat	-10.8371
▁cleaning	-10.8371
▁private	-10.8375
▁hottest	-10.8382
▁becoming	-10.8387
nny	-10.839
▁ground	-10.8391
thats	-10.8392
▁Sure	-10.8395
▁bill	-10.84
▁driver	-10.8402
▁MA	-10.8403
ini	-10.8404
DAY	-10.8406
▁Babe	-10.8407
▁guard	-10.8408
・・・	-10.8408
Money	-10.8409
party	-10.8409
▁forgive	-10.8411
▁inspired	-10.8415
▁GUYS	-10.8417
95	-10.8417
▁devil	-10.8419
▁cats	-10.8423
▁du	-10.8426
▁GIRL	-10.8428
high	-10.8429
▁asl	-10.8431
selfie	-10.8433
▁clutch	-10.8434
▁War	-10.8438
▁honor	-10.8442
wal	-10.8442
NE	-10.8442
▁copy	-10.8445
▁Mine	-10.8445
▁prob	-10.8447
won	-10.8448
▁MARDI	-10.8449
▁Scott	-10.8452
jae	-10.8456
BS	-10.8459
▁DE	-10.8461
▁screaming	-10.8461
pal	-10.8462
▁generation	-10.8465
▁Hold	-10.8466
▁position	-10.8466
ess	-10.8472
▁garden	-10.8474
Mu	-10.8476
▁strength	-10.8477
▁THEY	-10.8477
▁claim	-10.8479
Bad	-10.8486
▁pm	-10.8487
▁youuuu	-10.8489
▁ji	-10.849
▁glo	-10.8492
aga	-10.8493
Alex	-10.8493
▁gal	-10.8496
▁Yu	-10.8497
▁mode	-10.8499
▁data	-10.8499
▁2017	-10.8503
▁3.	-10.8504
▁mass	-10.8506
▁DON	-10.8506
▁jeans	-10.8507
70	-10.8516
Cha	-10.8519
▁bowl	-10.8519
nk	-10.8523
56	-10.8524
▁classic	-10.8528
▁Ko	-10.853
▁cares	-10.8535
▁TOMORROW	-10.8538
▁En	-10.8538
friends	-10.8539
fire	-10.8544
kid	-10.8547
▁Peace	-10.8548
Hu	-10.8549
▁★	-10.8549
qua	-10.8549
▁spell	-10.8552
▁belly	-10.8554
▁fo	-10.8556
fest	-10.8561
▁click	-10.8561
▁hits	-10.8562
Ti	-10.8564
iv	-10.8566
▁RIGHT	-10.857
▁system	-10.857
ino	-10.8571
Ass	-10.8578
ARTING	-10.8579
shit	-10.858
news	-10.858
air	-10.8582
▁festival	-10.8583
▁force	-10.8584
▁$1	-10.8584
▁jersey	-10.8584
▁content	-10.8586
▁paint	-10.8586
▁competition	-10.8589
EST	-10.859
pat	-10.8592
▁tune	-10.8593
av	-10.8594
mb	-10.8595
▁Air	-10.8598
▁porn	-10.8598
▁;)	-10.86
chan	-10.8602
hyun	-10.8602
▁Ju	-10.8604
▁fwm	-10.8608
▁Prince	-10.8608
▁dates	-10.8609
36	-10.8613
▁Everyday	-10.8615
▁Cat	-10.8616
▁Meet	-10.8617
▁Gorgeous	-10.8617
insta	-10.8618
▁iOS	-10.8618
ea	-10.8619
▁mines	-10.8621
▁scream	-10.8622
kayla	-10.8623
June	-10.8624
▁released	-10.8626
▁birth	-10.8627
▁flip	-10.8628
▁favor	-10.8631
oy	-10.8636
bro	-10.864
▁hu	-10.864
▁Ni	-10.8642
post	-10.8645
65	-10.8647
▁cotton	-10.865
TS	-10.865
▁chu	-10.865
▁hahahaha	-10.8656
▁notifications	-10.8665
▁neither	-10.8666
▁download	-10.8669
▁Euro	-10.8669
▁celebrating	-10.8671
▁hardest	-10.8672
▁sore	-10.8672
▁area	-10.8676
▁timeline	-10.8676
mom	-10.8679
GER	-10.868
า	-10.8682
▁studio	-10.8683
▁su	-10.8683
▁Grimmie	-10.8686
bal	-10.8687
ele	-10.8691
▁innocent	-10.8692
Take	-10.8696
▁within	-10.8698
▁HER	-10.8699
Play	-10.8699
ax	-10.8699
▁LOOK	-10.8701
▁instagram	-10.8701
▁anxiety	-10.8703
▁comeback	-10.8703
When	-10.8703
▁constantly	-10.8705
Ali	-10.8708
▁December	-10.8709
▁lied	-10.8721
ima	-10.8722
▁Gu	-10.8731
▁Shoutout	-10.8737
▁proper	-10.874
▁asap	-10.874
▁press	-10.8745
super	-10.8745
woo	-10.8745
FREE	-10.8752
IE	-10.8755
▁carry	-10.8755
NP	-10.8756
▁master	-10.8757
Beauty	-10.8767
▁stressed	-10.8768
James	-10.8768
▁blowing	-10.877
▁packing	-10.8771
▁jack	-10.8772
▁Camp	-10.8773
▁brings	-10.8779
▁receive	-10.8779
▁degrees	-10.8781
▁pan	-10.8785
▁adore	-10.8786
▁members	-10.8787
▁VIP	-10.8789
▁End	-10.8792
▁Pe	-10.8792
▁GREAT	-10.8795
▁animal	-10.8796
▁idiot	-10.8798
cr	-10.8804
▁Wayne	-10.8806
▁rocking	-10.8807
▁tacos	-10.8808
▁teams	-10.881
white	-10.8812
▁herself	-10.8812
▁Use	-10.8813
fly	-10.8814
}	-10.8816
Top	-10.882
▁Idc	-10.8822
▁accident	-10.8822
▁Mother	-10.8822
▁jail	-10.8824
▁laid	-10.8826
mu	-10.8827
lol	-10.8827
▁MUSIC	-10.884
▁Yep	-10.8841
▁Water	-10.8845
▁image	-10.8847
Tha	-10.8847
▁scenes	-10.8851
feat	-10.8853
ag	-10.8853
GG	-10.8856
self	-10.8859
▁Grand	-10.8862
OS	-10.8864
SC	-10.8865
Forever	-10.8867
▁doctor	-10.8868
93	-10.8868
▁quarter	-10.8869
▁Bay	-10.8873
▁BY	-10.8875
mac	-10.8877
▁pinned	-10.8877
▁haircut	-10.888
taylor	-10.8881
▁lebron	-10.8882
model	-10.8883
▁Tim	-10.8884
tweet	-10.8886
leigh	-10.8887
▁oil	-10.8887
AD	-10.889
▁campaign	-10.8895
know	-10.8897
▁Portugal	-10.8897
▁bo	-10.8899
▁loose	-10.8903
zzy	-10.8904
say	-10.8907
▁grand	-10.8908
▁trend	-10.8911
▁clock	-10.8913
▁dare	-10.8917
▁throwback	-10.8919
MB	-10.8919
forever	-10.8921
tro	-10.8922
▁tripping	-10.8924
▁mirror	-10.8927
▁skinny	-10.8929
▁recently	-10.8931
58	-10.894
▁raise	-10.8945
tz	-10.8945
▁aunt	-10.8948
oooooo	-10.8957
UP	-10.8958
makeup	-10.8962
▁Awards	-10.8962
▁insane	-10.8963
▁SA	-10.8965
▁Double	-10.8965
▁coz	-10.8966
▁opportunity	-10.897
lv	-10.8973
▁ye	-10.8973
sie	-10.8975
▁#3	-10.8976
stone	-10.8977
▁convo	-10.8977
yah	-10.8981
▁hook	-10.8981
ple	-10.8982
mas	-10.8982
ther	-10.8983
▁friday	-10.8983
▁candy	-10.8984
▁Mama	-10.8986
42	-10.899
▁wat	-10.8991
SoundCloud	-10.8993
ddd	-10.8996
▁Poor	-10.8998
▁raised	-10.8998
▁remembered	-10.8998
▁wrap	-10.9
▁Rain	-10.9001
GrowingUpWithMyN	-10.9001
Ch	-10.9006
▁smooth	-10.9016
▁ep	-10.9016
▁BUY	-10.9017
▁United	-10.9018
ben	-10.9019
cool	-10.9019
top	-10.902
▁counting	-10.902
▁thang	-10.9021
▁Brazil	-10.9024
Fly	-10.9024
▁cutting	-10.9027
▁oitnb	-10.9034
GH	-10.9034
▁sunday	-10.9036
▁Chinese	-10.9037
▁patient	-10.9038
▁Ball	-10.9039
▁dem	-10.9041
Have	-10.9042
▁girly	-10.9043
late	-10.9046
▁fb	-10.9047
RA	-10.9047
sel	-10.905
▁beard	-10.9053
Grimmie	-10.9058
▁jo	-10.9064
They	-10.907
cap	-10.9074
rl	-10.9075
▁below	-10.9077
▁bang	-10.9078
▁personality	-10.9078
▁Face	-10.9078
lah	-10.9081
Party	-10.9082
▁plug	-10.9082
▁que	-10.9085
▁tht	-10.9085
PE	-10.9086
▁@5	-10.909
▁chi	-10.9092
DubNation	-10.9094
▁Told	-10.9096
ski	-10.9096
▁Fam	-10.9096
▁rice	-10.9098
Monday	-10.91
▁performing	-10.9107
Taylor	-10.9109
RI	-10.9111
▁Saw	-10.9112
Cor	-10.9113
▁Pi	-10.9113
watch	-10.9113
▁ocean	-10.9116
▁Smile	-10.9117
▁blind	-10.9117
▁???	-10.9119
▁mail	-10.9124
▁amaze	-10.9125
▁Ed	-10.913
asia	-10.9132
ALDUBKSReunion	-10.9132
hour	-10.9132
▁twins	-10.9135
▁Lady	-10.9138
▁van	-10.9142
▁complaining	-10.9148
소년	-10.9149
▁mutual	-10.9149
▁Lauren	-10.9153
DVirgins	-10.9154
▁tongue	-10.9155
▁REALLY	-10.9155
▁Dallas	-10.9156
▁Straight	-10.9158
OL	-10.916
beach	-10.9161
▁alcohol	-10.9164
▁colour	-10.9165
▁highlight	-10.9166
▁EDC	-10.9166
yes	-10.9168
alex	-10.9168
▁realise	-10.917
▁gotchu	-10.9171
▁became	-10.9172
123	-10.9175
▁jobs	-10.9175
▁WTF	-10.9177
Boss	-10.9183
▁chillin	-10.9184
▁posts	-10.9189
▁admit	-10.9193
TE	-10.9199
sam	-10.92
▁braids	-10.92
▁student	-10.9201
▁expected	-10.9202
pink	-10.9203
EN	-10.9205
OG	-10.9206
▁Many	-10.9213
bell	-10.9215
▁emotions	-10.9215
▁pieces	-10.9225
▁HATE	-10.9226
▁Special	-10.9228
▁guns	-10.9232
ial	-10.9234
▁hmm	-10.9234
▁Cant	-10.9235
▁slap	-10.9237
▁mid	-10.9239
▁booked	-10.924
▁Britain	-10.924
▁Fav	-10.9241
▁design	-10.9243
Ad	-10.9245
▁pie	-10.9248
oc	-10.9248
ls	-10.9248
▁Wa	-10.9251
lor	-10.9261
Mac	-10.9262
▁Ali	-10.9265
▁lane	-10.9267
▁icon	-10.9269
▁flow	-10.9269
▁apple	-10.9272
▁finale	-10.9272
▁exact	-10.9281
▁kisses	-10.9282
uuuu	-10.9285
▁letter	-10.9289
▁packed	-10.9292
▁pressure	-10.9302
▁Pool	-10.9303
CU	-10.9303
▁mentions	-10.9303
▁Je	-10.9307
dont	-10.9309
▁Williams	-10.9314
▁hrs	-10.9325
▁Scotland	-10.9327
▁Early	-10.9329
43	-10.9331
▁lads	-10.9332
▁throat	-10.9333
▁Fresh	-10.9336
▁je	-10.9339
tar	-10.9339
eli	-10.9343
▁OFF	-10.9344
England	-10.9346
▁Sex	-10.9348
▁protect	-10.9349
96:	-10.9352
66	-10.9354
RS	-10.9355
ese	-10.9357
sp	-10.9358
Ray	-10.9363
Family	-10.9363
▁tear	-10.9364
▁disrespectful	-10.9366
▁$5	-10.9368
▁golden	-10.9368
cent	-10.9376
EL	-10.9377
▁relationships	-10.9378
▁Ian	-10.938
▁balls	-10.9381
▁progress	-10.9381
▁itself	-10.9383
▁ra	-10.9386
▁crowd	-10.9387
▁rub	-10.9388
▁longest	-10.9393
▁HELL	-10.9394
20:	-10.9395
Why	-10.9396
▁warriors	-10.9396
wo	-10.9399
▁Ru	-10.9402
▁Story	-10.9404
!!!!!!	-10.9405
▁foul	-10.9406
▁cost	-10.9408
MO	-10.941
PA	-10.9416
▁rose	-10.9421
MI	-10.9423
Thanks	-10.9424
▁rare	-10.9424
AT	-10.9426
▁cheap	-10.9428
▁empty	-10.9428
▁Sky	-10.9429
▁enter	-10.9433
▁whether	-10.9434
▁ca	-10.9434
▁Obama	-10.9435
▁Sign	-10.9439
▁loads	-10.944
▁bound	-10.9442
▁accidentally	-10.9451
Su	-10.9458
▁cards	-10.946
ami	-10.946
87	-10.946
▁caring	-10.9464
▁doll	-10.9464
▁Sir	-10.9466
▁NA	-10.9468
▁animals	-10.9473
▁70	-10.9474
hoe	-10.9475
▁Loved	-10.9479
▁decisions	-10.9481
▁WOW	-10.9483
▁Craving	-10.9486
▁ideas	-10.9493
iest	-10.9499
ree	-10.9502
▁lesson	-10.9505
ero	-10.9507
▁hahah	-10.9507
West	-10.9509
Nashgrier	-10.951
Cat	-10.9513
47	-10.9519
▁Yup	-10.9519
www	-10.9522
▁ju	-10.9524
67	-10.9526
▁Thx	-10.953
eb	-10.9535
come	-10.9537
Stay	-10.9547
hand	-10.9547
▁ps	-10.9549
med	-10.955
▁East	-10.956
▁matters	-10.9564
▁fi	-10.9566
tttt	-10.9566
Boo	-10.9566
▁naw	-10.9567
lum	-10.9569
sia	-10.957
zu	-10.957
▁Concert	-10.957
May	-10.9573
▁embarrassing	-10.9573
▁streak	-10.9576
City	-10.9577
▁George	-10.9588
jack	-10.959
dia	-10.9591
▁restaurant	-10.9593
▁BTS	-10.9598
▁Appreciate	-10.9599
aly	-10.96
AN	-10.9601
▁tree	-10.9602
Radio	-10.9608
kat	-10.9611
water	-10.9612
pen	-10.9612
▁Respect	-10.9614
hen	-10.9614
▁racist	-10.9615
▁Half	-10.9616
▁Talking	-10.962
gram	-10.9622
▁Beauty	-10.9623
Chi	-10.9623
▁bug	-10.9625
Gary	-10.9626
ati	-10.9628
▁hai	-10.9634
HQ	-10.9634
▁Gold	-10.9637
non	-10.9638
▁Mon	-10.964
avi	-10.964
▁younger	-10.9643
▁address	-10.9645
▁asshole	-10.9645
▁CUTE	-10.9646
teen	-10.965
▁Alright	-10.9651
ban	-10.9652
ions	-10.966
▁sneak	-10.9661
NBA	-10.9664
RY	-10.9666
▁talks	-10.9668
Work	-10.9671
▁babygirl	-10.9672
▁dudes	-10.9674
▁frfr	-10.9675
▁MAN	-10.9676
mad	-10.9682
▁refuse	-10.9683
▁common	-10.9685
▁lived	-10.9687
week	-10.9691
chris	-10.9697
▁tiny	-10.97
▁Plus	-10.9701
Daily	-10.9703
▁McDonald	-10.9708
▁adventure	-10.9711
▁Bill	-10.9713
▁location	-10.9717
▁oops	-10.9718
ect	-10.9722
▁Brother	-10.9727
ASH	-10.9727
▁spoiled	-10.9733
rich	-10.9737
▁kit	-10.9741
▁checked	-10.9741
44	-10.9742
ug	-10.9748
▁fried	-10.9752
▁retweets	-10.9752
▁hole	-10.9757
▁Bra	-10.9759
▁drake	-10.976
▁zone	-10.9763
▁stan	-10.9764
▁burger	-10.9764
eeeeee	-10.9765
green	-10.9765
TheMattEspinosa	-10.977
▁Subscribe	-10.977
▁bum	-10.977
▁Run	-10.9773
▁characters	-10.9775
rip	-10.9777
here	-10.9779
▁Lucky	-10.978
Watch	-10.9782
▁Min	-10.9784
sarah	-10.9786
rc	-10.9786
▁bite	-10.9791
▁Australia	-10.9792
00:	-10.9792
57	-10.9792
▁Tyler	-10.9794
▁ive	-10.9796
▁allow	-10.9799
ggg	-10.9802
NT	-10.9803
tes	-10.9808
▁EXO	-10.9808
▁35	-10.981
▁south	-10.9811
▁beast	-10.9817
▁careful	-10.9818
▁Football	-10.9822
▁insta	-10.9825
cker	-10.9828
▁lu	-10.9831
▁describe	-10.9832
▁jacket	-10.9832
DC	-10.9835
▁Tag	-10.9837
▁popping	-10.9837
las	-10.9838
▁slowly	-10.9839
▁boi	-10.9841
▁$10	-10.9844
▁lad	-10.9847
was	-10.9852
hard	-10.9857
▁Grab	-10.9858
yung	-10.9859
▁unfollow	-10.986
▁Tony	-10.9862
Hey	-10.9864
▁University	-10.9867
▁create	-10.9868
shirt	-10.9871
▁Cut	-10.9873
▁tap	-10.9873
▁compliment	-10.9875
▁recent	-10.9875
NC	-10.9876
▁patience	-10.9876
▁Pizza	-10.9879
▁LMFAO	-10.9882
▁meat	-10.9883
▁dey	-10.9888
▁Came	-10.9888
▁Fall	-10.9895
▁HELLA	-10.99
▁drugs	-10.9908
▁expecting	-10.9908
▁Dance	-10.9908
▁HOT	-10.9909
dream	-10.9909
chy	-10.9912
▁Ask	-10.9912
▁Favorite	-10.9915
▁bump	-10.9916
CH	-10.992
▁Jane	-10.992
▁exhausted	-10.9922
brown	-10.9923
burn	-10.9926
▁messy	-10.9927
▁NC	-10.9929
▁wa	-10.9932
86	-10.9933
▁beats	-10.9933
▁id	-10.9945
▁LET	-10.9946
Heart	-10.9946
▁fully	-10.9947
▁interest	-10.9947
▁HA	-10.9947
▁badly	-10.9952
▁faster	-10.9955
▁pin	-10.996
▁somehow	-10.996
make	-10.9962
▁shape	-10.9963
ENT	-10.9966
ear	-10.997
▁fellow	-10.997
▁extremely	-10.997
▁Niall	-10.9976
▁comp	-10.9983
hn	-10.9985
fitness	-10.9987
please	-11.0001
▁boobs	-11.0003
FaceTimeMeNash	-11.0006
EE	-11.0006
dor	-11.0008
▁stone	-11.0018
▁basic	-11.0022
▁Women	-11.0022
▁Cameron	-11.0025
mma	-11.0027
▁Us	-11.0027
▁Bri	-11.003
▁tuned	-11.0031
▁dollar	-11.0033
bet	-11.0035
▁PS	-11.0039
▁colors	-11.0039
▁plate	-11.0043
▁Grey	-11.0046
▁Mary	-11.0046
Tee	-11.0049
ox	-11.005
▁math	-11.0051
Mark	-11.0051
had	-11.0051
lk	-11.0054
▁STILL	-11.0061
▁yellow	-11.0063
White	-11.0067
94	-11.0072
rrrr	-11.0072
▁shirts	-11.0073
lover	-11.0078
beautiful	-11.0078
▁pretend	-11.0079
▁total	-11.0082
Great	-11.0082
tta	-11.0084
▁tells	-11.0085
hood	-11.0089
▁Christmas	-11.0089
▁Pay	-11.0092
▁Ice	-11.0103
▁Sh	-11.0104
▁skip	-11.0106
▁Chile	-11.0107
▁gross	-11.011
sis	-11.0111
▁ti	-11.0113
pri	-11.0124
▁numbers	-11.0126
bon	-11.0126
▁WORLD	-11.0127
Jack	-11.0128
ens	-11.0131
ink	-11.0131
bit	-11.0136
▁omfg	-11.0136
▁bull	-11.0136
KE	-11.0139
Matt	-11.0139
▁Cole	-11.014
mind	-11.0141
NYC	-11.0143
▁avoid	-11.0145
ram	-11.0148
▁Pop	-11.0149
rri	-11.015
▁trump	-11.015
▁breathe	-11.0151
▁market	-11.0151
nc	-11.0152
par	-11.0153
▁sight	-11.0156
Twitter	-11.016
▁Oomf	-11.0161
fl	-11.0164
▁Road	-11.0164
rin	-11.0168
▁language	-11.0169
▁FL	-11.0171
▁memory	-11.0172
▁ver	-11.0172
▁graduating	-11.0179
ا	-11.0184
▁river	-11.019
Hot	-11.019
▁cheating	-11.019
row	-11.0192
ative	-11.0196
▁clue	-11.0197
▁mutuals	-11.0198
sssss	-11.0203
▁dam	-11.0205
GOT	-11.0207
▁Lee	-11.0211
▁Pink	-11.0215
▁Ri	-11.0215
▁BAR	-11.0215
▁Selena	-11.0217
▁Sending	-11.0217
▁ears	-11.0222
▁feelin	-11.0233
rick	-11.024
Nicole	-11.0241
▁chips	-11.0241
zzz	-11.0247
lou	-11.0248
▁Per	-11.0249
power	-11.0255
▁picking	-11.0255
care	-11.0257
▁nvm	-11.0258
eye	-11.0259
MS	-11.0259
▁perfectly	-11.0261
ugh	-11.0262
▁Light	-11.0268
▁mr	-11.0271
▁plenty	-11.0273
▁turnt	-11.0274
ven	-11.0275
bear	-11.0277
▁tattoos	-11.0278
▁ng	-11.0278
ell	-11.0279
▁Left	-11.0282
▁Tri	-11.0283
bitch	-11.0285
ALDUBEBFathersDa	-11.0286
▁attractive	-11.0286
▁punch	-11.0286
▁productive	-11.0286
Book	-11.0287
Za	-11.0288
▁Listening	-11.0289
▁settle	-11.0292
▁crib	-11.0294
pping	-11.0294
▁kicked	-11.0298
▁pi	-11.0298
▁Son	-11.0298
mont	-11.0299
▁Move	-11.0302
▁×	-11.0304
51	-11.0305
fr	-11.0308
hope	-11.031
▁DC	-11.031
▁tagged	-11.0312
▁yah	-11.0312
ALDUBxDrewGa	-11.0317
▁Rip	-11.0318
▁rate	-11.0319
▁rainbow	-11.0319
▁purple	-11.0323
▁quickly	-11.0323
▁BO	-11.0323
▁stole	-11.0324
wear	-11.0326
▁President	-11.0326
nice	-11.0327
Ms	-11.0329
▁App	-11.0331
ily	-11.0338
▁Cuz	-11.0338
cee	-11.0339
ica	-11.0339
64	-11.0339
م	-11.0342
Fa	-11.0346
▁TF	-11.0349
emily	-11.0349
▁grey	-11.035
85	-11.0351
▁Roy	-11.0352
John	-11.0354
▁mar	-11.0359
▁heartbreaking	-11.036
bella	-11.036
▁faces	-11.0368
▁Break	-11.0369
rus	-11.0373
JENDIYgiveaway	-11.0374
365	-11.0376
▁AGAIN	-11.0376
sex	-11.0376
▁tape	-11.0376
▁direction	-11.0377
▁speed	-11.0381
▁1000	-11.0381
goals	-11.0383
AP	-11.0383
▁sadly	-11.0383
▁Orange	-11.0385
oz	-11.0385
▁ghost	-11.0389
▁duh	-11.0391
▁--	-11.0393
▁championship	-11.0394
▁den	-11.0395
aan	-11.0396
kan	-11.0396
▁ik	-11.0397
tle	-11.0398
▁winter	-11.04
under	-11.0401
aaaaaa	-11.0405
▁planet	-11.0405
▁$50	-11.0406
▁killer	-11.0411
Sweet	-11.0414
▁Irish	-11.0417
-3	-11.0417
west	-11.042
▁Smith	-11.0422
izzle	-11.0422
▁shoutout	-11.0422
▁stressful	-11.0423
hill	-11.0424
▁addicted	-11.0425
▁uni	-11.0425
▁Their	-11.0426
▁Dem	-11.0426
▁homework	-11.0426
▁Bell	-11.0427
▁general	-11.0427
▁com	-11.0428
lle	-11.0428
coffee	-11.0433
▁background	-11.0444
▁simply	-11.0446
▁sport	-11.0448
Paul	-11.045
▁arguing	-11.0451
TER	-11.0451
▁li	-11.0451
▁Set	-11.0453
▁lipstick	-11.0454
lis	-11.0455
▁Share	-11.0456
▁pen	-11.046
Come	-11.046
▁couch	-11.0464
▁Cr	-11.0465
Wa	-11.0465
▁shoe	-11.047
200	-11.0472
▁leaves	-11.0477
ato	-11.0479
▁Middle	-11.0479
RO	-11.0479
▁Cor	-11.0483
▁Angel	-11.0486
▁named	-11.0489
UM	-11.0492
▁Support	-11.0494
▁op	-11.0495
ving	-11.0496
▁male	-11.0502
▁pitch	-11.0507
▁ignoring	-11.0509
▁pee	-11.0512
▁AC	-11.0514
▁FINALLY	-11.0516
ct	-11.0522
ub	-11.053
▁unreal	-11.0531
▁messing	-11.0532
ib	-11.0533
68	-11.0534
-2	-11.0535
ida	-11.0535
▁events	-11.0536
▁idol	-11.0536
isha	-11.0536
▁epic	-11.054
▁Christian	-11.0541
▁screenshot	-11.0543
▁mixed	-11.0545
▁MO	-11.0546
ches	-11.0547
▁students	-11.0549
▁Word	-11.0565
▁Taco	-11.0566
▁snow	-11.0568
bang	-11.0574
▁failed	-11.0576
gy	-11.0578
Ben	-11.0584
ole	-11.0587
Are	-11.0592
cake	-11.0592
▁Until	-11.0598
kie	-11.0598
▁Russia	-11.0598
▁trailer	-11.0605
blogger	-11.0608
▁bond	-11.061
right	-11.0612
▁str	-11.0615
▁imy	-11.0617
ssy	-11.0627
▁HBD	-11.0628
▁Tour	-11.0634
ible	-11.0637
▁request	-11.0639
▁consider	-11.0641
Men	-11.0641
▁west	-11.0642
FA	-11.0649
HS	-11.065
sty	-11.0651
Keep	-11.0654
ned	-11.0654
▁Tbh	-11.0657
▁October	-11.0658
▁caption	-11.0658
▁ban	-11.0659
▁Stand	-11.0673
▁tank	-11.0675
▁changes	-11.0675
▁regardless	-11.0678
▁CANT	-11.0679
gin	-11.068
mond	-11.0682
away	-11.0683
▁Body	-11.0683
Ask	-11.0685
▁Los	-11.0685
nah	-11.0686
▁cc	-11.0687
▁loyalty	-11.0687
▁stronger	-11.0688
Little	-11.0695
Je	-11.0696
75	-11.0697
▁grew	-11.0698
▁preach	-11.0699
▁WI	-11.07
lea	-11.0701
nor	-11.0703
ora	-11.0704
Pop	-11.0704
tics	-11.0705
iah	-11.0707
▁retweeting	-11.0708
▁machine	-11.0715
andy	-11.0716
▁received	-11.0717
dar	-11.072
▁inspiring	-11.0723
ashley	-11.0724
made	-11.0725
▁Kay	-11.0726
▁customer	-11.0727
Fuck	-11.0729
▁playin	-11.073
▁bills	-11.0738
nan	-11.0739
ao	-11.0739
▁treated	-11.0741
Dont	-11.0742
▁someday	-11.0744
damn	-11.0745
▁Ki	-11.0747
▁proof	-11.0749
ira	-11.0751
sure	-11.0754
▁recommend	-11.0759
▁report	-11.0764
Am	-11.0765
▁faves	-11.0769
▁Chi	-11.0771
▁dub	-11.0771
▁attend	-11.0774
▁Martin	-11.0776
▁pose	-11.0777
iee	-11.0777
ALL	-11.0779
▁opened	-11.0781
▁massive	-11.0791
aaay	-11.0791
Bee	-11.0792
ric	-11.0793
▁Austin	-11.0796
nick	-11.0798
▁AN	-11.0799
▁burnt	-11.0801
kai	-11.0802
▁mission	-11.0806
▁fandom	-11.0806
92	-11.0809
27:	-11.0811
▁sushi	-11.0812
shay	-11.0815
▁Whatever	-11.0816
▁toes	-11.0818
▁Ti	-11.082
▁heck	-11.0822
▁personally	-11.0822
▁Apparently	-11.0823
▁trippin	-11.0824
OO	-11.0825
Green	-11.0828
hol	-11.083
TT	-11.083
▁impossible	-11.0837
tea	-11.0837
▁Hillary	-11.0844
▁Hu	-11.0846
ante	-11.0847
▁woo	-11.0848
iff	-11.0848
ALDUBTheSender	-11.085
Bro	-11.0851
▁Sub	-11.0855
▁aka	-11.0856
▁chose	-11.0857
dom	-11.087
▁edition	-11.0871
▁Comp	-11.0873
club	-11.0873
kill	-11.0875
▁knocked	-11.0878
▁HAHAHA	-11.0882
▁Har	-11.0882
Princess	-11.0883
Mad	-11.0887
▁Met	-11.0887
▁nor	-11.0889
▁golf	-11.0897
▁nation	-11.0901
▁cars	-11.0903
lauren	-11.0905
▁brotha	-11.0912
from	-11.0914
▁Sexy	-11.0915
▁Nor	-11.0915
GoldenWeeksary	-11.0917
High	-11.0917
▁shorty	-11.0918
▁4.	-11.0919
▁CA	-11.092
▁mac	-11.0921
Tay	-11.0921
▁Uber	-11.0925
Marie	-11.0929
yan	-11.0931
33:	-11.0937
▁woah	-11.0939
dr	-11.0942
▁passion	-11.0942
Mike	-11.0947
▁onto	-11.0952
▁current	-11.0952
▁While	-11.0957
link	-11.0958
wee	-11.0959
pped	-11.0961
london	-11.0961
79	-11.0963
▁signing	-11.0966
where	-11.0968
Fi	-11.0969
▁Kobe	-11.0974
▁crime	-11.0975
▁Josh	-11.0977
itz	-11.098
ified	-11.0982
▁products	-11.0987
▁tie	-11.0991
▁sand	-11.0991
▁distance	-11.0991
set	-11.0991
89	-11.0998
▁Click	-11.1001
▁created	-11.1002
▁Jam	-11.1002
▁degree	-11.1003
aay	-11.1003
▁Ronaldo	-11.1005
ace	-11.1007
Here	-11.1008
▁disrespect	-11.1013
▁bacon	-11.1017
lb	-11.1018
▁toast	-11.102
Club	-11.102
02:	-11.102
▁prepared	-11.1021
▁WAIT	-11.1024
smith	-11.1025
▁fancy	-11.1034
▁horse	-11.1036
▁diet	-11.1037
▁kills	-11.1039
▁afford	-11.1042
▁goat	-11.1042
soul	-11.1042
▁studying	-11.1043
▁Princess	-11.1043
▁Hmm	-11.1044
▁layout	-11.1051
▁brave	-11.1053
▁heels	-11.1054
CD	-11.1054
even	-11.1057
▁dangerous	-11.1058
▁endlessly	-11.1061
▁sunny	-11.1062
ities	-11.1065
▁MAKE	-11.1066
▁lines	-11.1067
▁Mrs	-11.1068
▁heads	-11.107
▁va	-11.1073
▁Lots	-11.1076
year	-11.1077
▁president	-11.1079
▁NE	-11.1081
▁Bored	-11.1084
tte	-11.1084
▁monster	-11.1089
vn	-11.1092
▁rise	-11.1094
▁Everytime	-11.1094
▁Google	-11.1102
▁bitter	-11.1104
ev	-11.1105
▁Daily	-11.1107
WA	-11.1108
DS	-11.111
ata	-11.1112
Ash	-11.1113
Pe	-11.1114
▁Save	-11.112
▁Che	-11.112
▁Ramadan	-11.1121
▁Woo	-11.1123
▁Change	-11.1124
▁wasted	-11.1125
▁pun	-11.1129
▁binge	-11.1132
▁freshman	-11.1133
tae	-11.1135
Cu	-11.1141
▁Sat	-11.1143
▁Fantastic	-11.1145
▁violate	-11.1147
▁Kylie	-11.1148
▁circle	-11.1148
▁Anything	-11.1148
stan	-11.1149
▁flex	-11.115
▁based	-11.1154
More	-11.1155
▁surely	-11.1157
Dream	-11.116
tom	-11.116
▁wise	-11.1162
▁convinced	-11.1163
IM	-11.1168
▁written	-11.1173
Che	-11.1174
CC	-11.118
nch	-11.1182
▁Dm	-11.1183
▁rules	-11.1184
▁gif	-11.1184
Jam	-11.119
photography	-11.1191
▁Max	-11.1191
tho	-11.1198
pics	-11.1199
nce	-11.12
▁Ye	-11.1204
▁rigged	-11.121
MM	-11.1211
hee	-11.1211
gged	-11.1212
▁host	-11.1218
osa	-11.1218
▁willing	-11.1223
▁Hotel	-11.1225
card	-11.1228
▁Ray	-11.1231
ula	-11.1231
▁Bob	-11.1231
ET	-11.1234
▁meaning	-11.1237
rv	-11.1237
▁Order	-11.1237
mag	-11.1238
adi	-11.1238
IA	-11.1239
hay	-11.1239
fish	-11.124
▁conversations	-11.1242
62	-11.1243
▁rush	-11.1243
yl	-11.1244
▁sunset	-11.1245
▁GM	-11.1245
▁Zayn	-11.1246
▁stressing	-11.1248
view	-11.1248
dic	-11.125
ALDUBEBTrumpets	-11.1251
iya	-11.1251
jones	-11.1253
hai	-11.1256
▁begins	-11.1256
▁BEAUTIFUL	-11.1256
▁stare	-11.1262
hal	-11.1263
▁covered	-11.1272
Gi	-11.1272
Say	-11.1273
▁rolling	-11.128
▁PC	-11.1281
▁Pull	-11.1282
RD	-11.1283
Ball	-11.1284
▁Ariana	-11.1289
ient	-11.1294
▁launch	-11.1297
OP	-11.1299
▁DA	-11.13
stop	-11.13
▁mag	-11.1301
vie	-11.1301
▁papa	-11.1303
▁pocket	-11.1303
▁WHEN	-11.1307
Lady	-11.1307
photo	-11.1309
pr	-11.131
aya	-11.131
BA	-11.1311
▁Treat	-11.1312
▁semester	-11.1314
▁wee	-11.1318
gun	-11.1318
▁upon	-11.1333
69:	-11.1333
▁surgery	-11.1335
▁Major	-11.1336
FM	-11.1337
▁EVERYTHING	-11.1342
vers	-11.1345
lex	-11.1346
ology	-11.1347
izzy	-11.1351
▁guilty	-11.1359
▁BOURBON	-11.1363
▁glow	-11.1364
▁kicking	-11.1367
ello	-11.1368
▁Makes	-11.1371
%	-11.1376
▁naman	-11.1378
▁Ppl	-11.1381
▁Johnson	-11.1381
▁survive	-11.1382
▁College	-11.1384
▁egg	-11.1385
▁accent	-11.1385
put	-11.1387
▁goofy	-11.1388
read	-11.1388
▁temporarily	-11.1391
▁tee	-11.1392
▁pu	-11.1392
Hope	-11.1397
pit	-11.1397
▁SAME	-11.1398
▁leader	-11.1404
Dr	-11.1404
As	-11.1405
▁unfortunately	-11.1406
BO	-11.1409
weekend	-11.141
hate	-11.1411
▁debut	-11.1411
iaa	-11.1416
▁Jesse	-11.1417
54	-11.1418
▁suddenly	-11.1423
▁th	-11.1424
PlayHouseAtlanta	-11.1426
▁twist	-11.1427
laa	-11.1427
ت	-11.1431
▁unavailable	-11.1433
▁pup	-11.1436
cing	-11.1439
elli	-11.1445
09:	-11.1447
▁Price	-11.1448
II	-11.1449
▁Deep	-11.145
ook	-11.145
friend	-11.1455
▁heading	-11.1458
dance	-11.1459
Nick	-11.1459
jr	-11.1461
Har	-11.1462
▁shocked	-11.1464
▁parking	-11.1464
ill	-11.1468
52	-11.1471
▁Name	-11.1475
Lauren	-11.1477
▁package	-11.1479
SH	-11.1482
sea	-11.1485
76	-11.1486
▁Job	-11.1487
▁adventures	-11.1487
uc	-11.1491
Wimbledon	-11.1494
78	-11.1497
▁smells	-11.1497
▁Said	-11.1498
▁Gr	-11.1502
▁Sea	-11.1503
vic	-11.1504
TM	-11.1504
emi	-11.1506
San	-11.1511
▁fed	-11.1511
▁staff	-11.1512
yr	-11.1512
▁wth	-11.1514
▁BIGGEST	-11.1515
▁DAMN	-11.1515
▁TE	-11.1516
wall	-11.1522
boys	-11.1522
▁listened	-11.1523
▁Date	-11.1523
▁updated	-11.1527
tel	-11.153
ett	-11.153
▁Steve	-11.1531
LS	-11.1536
▁contest	-11.1536
pride	-11.1539
▁Ad	-11.1541
▁updates	-11.1542
call	-11.1545
xi	-11.1546
▁cock	-11.1546
IL	-11.1548
▁Hoes	-11.1551
▁Daniel	-11.1554
▁homies	-11.1554
▁monday	-11.1556
▁hoop	-11.1556
▁GIRLS	-11.1557
▁keys	-11.1563
Sex	-11.1563
▁Hun	-11.1564
Pi	-11.1565
▁thunder	-11.1569
▁AS	-11.1571
▁Hall	-11.1571
▁managed	-11.1572
▁EVERY	-11.1573
From	-11.1576
▁genuinely	-11.158
▁scored	-11.158
//	-11.1581
▁Fi	-11.1581
84	-11.1582
thereal	-11.1582
keep	-11.1584
▁irritated	-11.1589
Angel	-11.1591
▁Secret	-11.1591
cl	-11.1592
cor	-11.1594
LO	-11.1594
▁GIVE	-11.1596
▁FROM	-11.1596
hrs	-11.1597
▁runs	-11.1597
71	-11.1599
▁feat	-11.16
▁ohh	-11.1601
Rich	-11.1602
morning	-11.1602
ي	-11.1605
dal	-11.1606
▁Drop	-11.1607
▁sandwich	-11.1609
Home	-11.161
od	-11.1613
▁bags	-11.1613
▁Sc	-11.1615
▁tat	-11.1619
▁confidence	-11.1619
Ed	-11.1619
bl	-11.1621
▁thug	-11.1622
03:	-11.1625
uhh	-11.1625
rain	-11.1627
roll	-11.1629
wl	-11.1631
▁FT	-11.1632
▁EP	-11.1634
▁Care	-11.1635
▁stranger	-11.1638
nation	-11.1638
▁Second	-11.1639
▁Roll	-11.1641
▁goodluck	-11.1641
▁ol	-11.1642
LOVE	-11.1644
abi	-11.1647
▁shock	-11.1649
▁clown	-11.1651
▁ASS	-11.1652
___	-11.1655
▁creepy	-11.1655
▁whip	-11.1661
▁YO	-11.1662
▁Christ	-11.1663
▁Totally	-11.1663
▁MF	-11.1664
inn	-11.1666
♡	-11.1668
rae	-11.167
Pat	-11.167
▁Ms	-11.167
▁chapter	-11.167
▁figured	-11.1673
AF	-11.1675
63	-11.1677
ei	-11.1678
Dad	-11.168
▁nut	-11.1682
▁FRIDAY	-11.1683
Talk	-11.1696
▁manage	-11.1696
nay	-11.1697
▁wasting	-11.1698
▁laptop	-11.1698
En	-11.1699
joy	-11.1699
▁knee	-11.1702
▁helps	-11.1703
▁Bieber	-11.1704
never	-11.1706
AG	-11.1707
▁pt	-11.1711
ryan	-11.1711
gate	-11.1711
ه	-11.1713
▁target	-11.1713
▁Other	-11.1714
FT	-11.1719
▁GAME	-11.1721
▁Final	-11.1728
ging	-11.1729
von	-11.173
▁Belgium	-11.1731
▁Sick	-11.1732
▁tix	-11.1732
▁Finals	-11.1736
lady	-11.1737
Kim	-11.1737
hannah	-11.1737
▁license	-11.1742
▁setting	-11.1742
SG	-11.1744
maria	-11.1746
usa	-11.1749
▁agreed	-11.1752
▁gig	-11.1752
07:	-11.1753
▁faithful	-11.1754
zer	-11.1755
clock	-11.1758
sol	-11.1761
una	-11.1763
▁deadass	-11.1764
hun	-11.1767
stay	-11.1772
▁Charlie	-11.1775
shy	-11.1775
uri	-11.178
▁Cho	-11.1782
ious	-11.1784
Kid	-11.1787
izz	-11.1788
tain	-11.1789
▁Living	-11.1793
▁Ver	-11.1793
any	-11.1796
▁Poland	-11.1797
▁duck	-11.1798
ack	-11.1798
tina	-11.18
ITA	-11.18
bay	-11.18
there	-11.1801
oma	-11.1803
▁otp	-11.1805
▁lick	-11.1811
doll	-11.1812
▁Sarah	-11.1815
▁Anna	-11.1816
esh	-11.1817
▁Kiss	-11.1818
▁UN	-11.1818
MG	-11.1823
▁tmrw	-11.1823
▁Kid	-11.1829
▁creative	-11.1832
luv	-11.1833
▁Sooo	-11.1833
daily	-11.1834
▁favs	-11.1836
▁slick	-11.1838
▁Tho	-11.1839
gr	-11.1841
▁violence	-11.1841
▁rule	-11.1842
talk	-11.1843
tr	-11.1844
ahh	-11.1852
Daddy	-11.1854
▁painting	-11.1856
ille	-11.1857
▁Af	-11.1857
▁held	-11.1862
dale	-11.1863
▁Ibiza	-11.1863
Never	-11.187
Dan	-11.1873
illa	-11.1873
fav	-11.1877
blessed	-11.1877
▁Kane	-11.188
▁Policy	-11.1881
▁Lemme	-11.1881
▁DID	-11.1883
▁wind	-11.1884
▁Close	-11.1889
vis	-11.1893
ND	-11.1897
▁nowadays	-11.1904
▁pillow	-11.1904
▁Anybody	-11.1904
▁value	-11.1911
rap	-11.1912
Min	-11.1914
Ex	-11.1916
soo	-11.1916
still	-11.1918
.”	-11.1919
eu	-11.192
▁Italian	-11.192
▁Que	-11.1921
72	-11.1922
▁drag	-11.1927
▁joking	-11.1927
▁load	-11.1928
▁sin	-11.1931
great	-11.1931
▁Waking	-11.1934
▁Whole	-11.1935
IG	-11.1935
▁fever	-11.1939
▁cunt	-11.1942
▁gu	-11.1943
▁sayin	-11.1944
Food	-11.1944
▁search	-11.1945
▁possibly	-11.1946
▁print	-11.195
Sh	-11.1961
▁upload	-11.1963
▁Thankful	-11.1964
▁Sp	-11.1966
ista	-11.1969
Our	-11.1971
▁Under	-11.1971
▁cookie	-11.1977
name	-11.1979
ors	-11.1982
▁Cannot	-11.1984
▁Chicken	-11.1984
▁Dave	-11.1987
▁$2	-11.199
▁musical	-11.1992
HO	-11.1992
wedding	-11.1995
eo	-11.1996
Brown	-11.1999
rge	-11.2001
Movie	-11.2003
hoo	-11.2005
▁trick	-11.2007
sley	-11.201
▁Tickets	-11.2011
▁Coach	-11.2012
▁Ken	-11.2012
▁staring	-11.2014
▁sl	-11.2015
▁Hill	-11.2017
olo	-11.2021
▁fucks	-11.2023
26:	-11.2023
▁hated	-11.2027
▁para	-11.2031
▁computer	-11.2038
▁500	-11.2039
cel	-11.2039
john	-11.2043
▁likely	-11.2046
▁yummy	-11.2046
Sun	-11.2048
▁Cu	-11.2051
chill	-11.2052
jan	-11.2054
▁Emma	-11.2056
41	-11.2058
▁cum	-11.2063
▁singer	-11.2065
mos	-11.2065
▁attempt	-11.2066
smile	-11.2066
cats	-11.2069
gee	-11.2069
design	-11.207
yeon	-11.2073
▁Number	-11.2074
▁fe	-11.2077
net	-11.2077
▁lover	-11.2079
wn	-11.2081
▁rep	-11.2083
lton	-11.2085
▁OUR	-11.2086
▁Forgot	-11.2088
sch	-11.2091
▁crown	-11.2094
▁eaten	-11.2095
▁wo	-11.2096
▁Dat	-11.2104
▁BFF	-11.2107
▁shoulder	-11.2107
Key	-11.2107
▁bun	-11.2108
▁tribute	-11.211
▁OVER	-11.2111
▁dnt	-11.2111
See	-11.2115
▁grandpa	-11.2116
▁Char	-11.2116
▁cancer	-11.2119
▁dollars	-11.2127
94:	-11.2132
▁statement	-11.2132
▁example	-11.2144
dra	-11.2145
▁praise	-11.2145
when	-11.2148
ington	-11.215
▁Festival	-11.2158
▁apologize	-11.2159
HH	-11.2161
BR	-11.2163
▁Pick	-11.2169
▁THANKS	-11.2169
ans	-11.217
▁YA	-11.217
▁socks	-11.2173
tl	-11.2175
▁Download	-11.2177
IC	-11.2179
▁NOTICE	-11.2182
▁lack	-11.2184
▁Believe	-11.2185
-1	-11.2185
lies	-11.2187
eg	-11.2188
▁Woah	-11.2188
▁strip	-11.219
uuuuu	-11.2196
▁confident	-11.2196
▁dye	-11.22
ov	-11.22
FRA	-11.2205
▁swing	-11.2209
▁Dark	-11.221
aye	-11.2213
wu	-11.2213
▁thrones	-11.2214
95:	-11.2216
ION	-11.222
▁grass	-11.222
▁term	-11.2226
mr	-11.2227
ddy	-11.2228
▁Walmart	-11.2235
▁shades	-11.2236
▁Wood	-11.2236
▁answers	-11.2239
form	-11.2247
▁wore	-11.2252
YOU	-11.2252
▁Swift	-11.2253
28:	-11.2256
▁rapper	-11.2257
▁steak	-11.226
▁Mor	-11.2268
▁mile	-11.2269
▁toilet	-11.2279
nite	-11.2282
ked	-11.2283
▁bubble	-11.2283
▁Fair	-11.2285
▁dia	-11.229
▁asses	-11.2291
▁Dress	-11.2292
▁Visit	-11.2293
alo	-11.2293
▁Short	-11.2298
cin	-11.2301
▁peeps	-11.2301
▁Days	-11.2303
yeah	-11.2305
kiss	-11.231
▁TN	-11.2319
War	-11.2321
▁gear	-11.2322
euro	-11.2324
▁noise	-11.2324
AB	-11.2328
try	-11.2329
berry	-11.2333
VI	-11.2335
MC	-11.2337
▁Fat	-11.2338
tail	-11.2339
▁Quick	-11.2342
▁BA	-11.2342
▁gem	-11.2346
▁pulling	-11.2347
trip	-11.235
Tuesday	-11.2355
log	-11.2358
▁KOALA	-11.2358
alexis	-11.236
ump	-11.2362
▁credits	-11.2363
▁Nike	-11.2365
▁2014	-11.2369
Mon	-11.2375
▁access	-11.2375
Sports	-11.2376
▁notes	-11.2381
Jordan	-11.2381
ender	-11.2382
▁WAY	-11.2383
▁north	-11.2388
▁flash	-11.2388
ations	-11.239
▁comin	-11.2393
▁promised	-11.2394
thing	-11.2401
belle	-11.2403
cer	-11.2403
▁related	-11.2407
▁Born	-11.2408
tur	-11.241
▁risk	-11.241
▁thou	-11.2415
▁international	-11.2415
Make	-11.2418
col	-11.2421
04:	-11.2423
و	-11.2426
Ken	-11.2428
▁anti	-11.2429
️️️	-11.2433
Dope	-11.2435
▁ku	-11.2438
Call	-11.2438
▁prayer	-11.2439
cca	-11.2442
▁African	-11.2443
▁silence	-11.2444
▁pushing	-11.2447
▁yrs	-11.2447
ava	-11.2461
uz	-11.2465
▁nomore	-11.2468
hat	-11.2468
▁Boss	-11.2473
▁atleast	-11.2475
POR	-11.2479
▁childhood	-11.248
els	-11.248
Trill	-11.2482
▁headed	-11.2485
AAA	-11.2486
▁Xbox	-11.2498
▁fireworks	-11.2499
▁Peter	-11.25
mani	-11.2502
▁sudden	-11.2502
▁Mix	-11.2502
HA	-11.2503
▁JR	-11.2507
▁Indian	-11.251
NS	-11.2511
▁smiles	-11.2512
▁QUEEN	-11.2518
▁bow	-11.2519
▁joining	-11.252
snapchat	-11.2521
EUref	-11.2523
▁par	-11.2523
▁birds	-11.2527
▁1/2	-11.2527
Over	-11.2528
suit	-11.2533
▁accounts	-11.2537
skin	-11.2542
thanks	-11.2543
▁familiar	-11.2546
▁Shawn	-11.2549
▁express	-11.2549
sof	-11.2549
ration	-11.2551
iyah	-11.2555
PR	-11.2557
Justin	-11.2561
Fun	-11.2561
▁ignorant	-11.2562
▁large	-11.2563
▁murder	-11.2566
berg	-11.2572
▁Plz	-11.2572
elo	-11.2574
▁forgetting	-11.2575
craft	-11.2575
tbt	-11.2576
▁bat	-11.2579
Off	-11.2584
▁guide	-11.2586
▁remix	-11.2593
▁Heaven	-11.2594
inthe	-11.2596
ral	-11.2602
▁closet	-11.2606
Fans	-11.2607
▁Fo	-11.2608
school	-11.2608
▁beating	-11.2608
mann	-11.261
▁apply	-11.2611
cole	-11.2611
boss	-11.2611
pet	-11.2612
David	-11.2614
sleep	-11.2615
▁q	-11.2616
nz	-11.2617
kkk	-11.2617
▁drove	-11.2618
▁Center	-11.262
Sp	-11.262
Ubi	-11.2624
▁raw	-11.2627
emma	-11.2627
gon	-11.2629
▁48	-11.263
▁Throwback	-11.2631
als	-11.2634
Tu	-11.2642
Cavs	-11.2642
House	-11.2644
▁Jason	-11.2645
Mag	-11.2646
iel	-11.2647
dress	-11.2649
▁potato	-11.2652
▁dip	-11.2653
▁SONG	-11.2655
▁Awe	-11.2656
▁wisdom	-11.2656
▁compare	-11.2658
▁Hahahaha	-11.266
▁ages	-11.2661
▁Walk	-11.2664
moon	-11.2669
MAN	-11.267
rican	-11.2673
▁Independence	-11.2673
▁Han	-11.2677
.......	-11.2678
cut	-11.268
ool	-11.268
football	-11.2682
▁effect	-11.2688
rio	-11.269
gga	-11.269
▁HIM	-11.2691
vv	-11.2694
ely	-11.2694
▁limit	-11.2697
▁higher	-11.2698
ggie	-11.2701
▁impact	-11.2706
▁Hoping	-11.2706
bianca	-11.2708
SI	-11.2714
▁Doesn	-11.2716
Mari	-11.2718
▁randomly	-11.2721
nyc	-11.2723
▁Safe	-11.2724
▁Hawaii	-11.2725
▁tries	-11.2727
▁painful	-11.2729
TheCastle	-11.2731
always	-11.2731
▁HO	-11.2732
mate	-11.2733
▁India	-11.2736
▁lift	-11.2737
poli	-11.2738
▁passing	-11.274
bag	-11.2741
EU	-11.2741
Hour	-11.2742
▁tons	-11.2743
▁sam	-11.2747
jj	-11.2747
▁Three	-11.275
▁Klay	-11.275
▁upcoming	-11.2751
31:	-11.2753
▁similar	-11.2754
ache	-11.2755
aah	-11.2755
▁Group	-11.2756
▁flags	-11.2759
▁Ang	-11.2759
jess	-11.2759
▁orientation	-11.2762
Michael	-11.2763
▁Ashley	-11.2763
▁River	-11.2766
▁captain	-11.2771
Saturday	-11.2771
EP	-11.2773
▁direct	-11.2774
gie	-11.2776
▁chasing	-11.2779
▁snack	-11.2779
▁PO	-11.278
vol	-11.2788
▁gurl	-11.2792
▁#5	-11.2793
▁Without	-11.2793
▁corn	-11.2793
kit	-11.2798
POL	-11.2799
Well	-11.2799
▁Far	-11.28
gang	-11.28
▁tragic	-11.2802
▁yesss	-11.2803
qu	-11.2804
▁THERE	-11.2806
74	-11.2808
MON	-11.2808
▁touched	-11.2814
▁hay	-11.2814
▁sleeve	-11.2819
FL	-11.2819
▁starving	-11.2819
▁Jones	-11.282
BirthdayBash	-11.2822
sal	-11.2823
mic	-11.2823
▁belong	-11.2824
anda	-11.2829
▁Games	-11.2834
▁built	-11.2835
▁German	-11.2837
73	-11.2842
▁Jamie	-11.2843
▁Legend	-11.2844
▁Preach	-11.2845
ppy	-11.2846
▁Ph	-11.2847
▁kindness	-11.2848
▁east	-11.2852
gui	-11.2853
tech	-11.2854
vine	-11.2856
ml	-11.2858
gging	-11.286
▁spider	-11.286
▁pot	-11.2862
▁Brilliant	-11.2866
dddd	-11.2867
jen	-11.2867
Ce	-11.2869
BC	-11.2872
08:	-11.2876
▁actor	-11.2877
Dj	-11.2881
▁excellent	-11.2884
Prince	-11.2886
bla	-11.2887
▁focused	-11.2889
▁Than	-11.289
Ann	-11.289
▁creep	-11.289
▁Shut	-11.2891
▁lockscreen	-11.2893
liz	-11.2895
▁ignored	-11.2896
▁brush	-11.2897
▁fil	-11.2898
▁Isn	-11.29
88:	-11.2902
/16	-11.2905
▁Tay	-11.2906
▁eggs	-11.2906
▁mon	-11.2907
595	-11.291
▁draft	-11.2911
▁mental	-11.2915
▁Sta	-11.2918
▁repostapp	-11.2919
▁lastnight	-11.2923
▁zoo	-11.2924
▁intense	-11.2925
▁purchase	-11.2925
▁Frank	-11.2929
▁Yet	-11.2931
▁feature	-11.2932
▁announce	-11.2932
▁serve	-11.2937
bling	-11.2938
▁relaxing	-11.2938
▁FOOD	-11.2941
▁3-1	-11.2942
▁Thats	-11.2945
▁dan	-11.2945
▁wheel	-11.2948
Chat	-11.295
▁dislike	-11.2952
thank	-11.2953
Cool	-11.2963
▁JUNE	-11.2968
rina	-11.2969
▁fails	-11.2969
▁genuine	-11.2969
eno	-11.2969
▁Jacob	-11.2974
▁Royal	-11.2975
hale	-11.2976
help	-11.2979
aki	-11.2979
ALDUBTrueIdentit	-11.2982
▁champ	-11.2985
pot	-11.2987
▁Round	-11.2988
video	-11.2989
Kat	-11.299
▁Cold	-11.2991
rat	-11.2996
▁jumping	-11.3004
▁rad	-11.3007
▁Uzi	-11.3008
rian	-11.301
▁Breakfast	-11.3016
▁strawberry	-11.3016
▁Less	-11.3017
▁visual	-11.3019
500	-11.3024
▁txt	-11.3025
▁otherwise	-11.3025
JaDine	-11.3025
▁asks	-11.3026
▁promo	-11.3029
▁soooooo	-11.303
▁Seems	-11.3032
▁boutta	-11.3033
▁SEXY	-11.3036
▁Snow	-11.3039
▁customers	-11.3044
bot	-11.3047
mia	-11.3048
▁forgotten	-11.3048
▁Missed	-11.3048
▁stink	-11.305
TC	-11.305
▁magical	-11.3051
▁Lunch	-11.3053
▁rat	-11.3053
pool	-11.3054
▁fade	-11.3055
▁nature	-11.3055
▁downtown	-11.3056
▁Bryson	-11.3057
▁research	-11.3057
BU	-11.3057
400	-11.3057
▁che	-11.3058
uch	-11.3058
Eng	-11.3059
▁guitar	-11.3064
▁pierced	-11.3065
master	-11.3066
▁mostly	-11.3066
▁uber	-11.3067
bird	-11.3067
▁Pen	-11.3068
▁LAST	-11.3068
▁mistakes	-11.3069
▁drug	-11.3069
▁yard	-11.3074
▁Tune	-11.3075
▁tak	-11.3077
▁Shi	-11.3078
BEL	-11.308
▁Beyonce	-11.3081
▁shi	-11.3083
SON	-11.3084
mary	-11.3084
▁Xx	-11.3093
eat	-11.3097
▁dig	-11.3098
▁max	-11.3111
case	-11.3111
▁deliver	-11.3113
▁blew	-11.3117
ae	-11.3117
▁tragedy	-11.3118
▁Andy	-11.3118
nar	-11.3118
▁expert	-11.3124
pie	-11.3126
▁Kids	-11.3127
Slim	-11.3128
▁jay	-11.3133
Gang	-11.3134
Song	-11.3137
turn	-11.3138
▁conference	-11.314
▁teen	-11.3141
ooooooo	-11.3144
▁rlly	-11.3145
▁Stone	-11.3147
▁Jess	-11.3148
▁Soo	-11.3149
▁stg	-11.3149
▁drank	-11.3149
▁smash	-11.3153
▁banana	-11.3154
istic	-11.3158
▁Philippines	-11.3158
▁comfort	-11.3158
ANG	-11.316
▁mentioned	-11.3162
▁Land	-11.3166
▁perfection	-11.3168
want	-11.3177
▁guest	-11.3178
▁parent	-11.3179
leg	-11.318
30:	-11.318
guy	-11.3183
ec	-11.3184
▁hiding	-11.3185
▁poll	-11.3185
▁Gym	-11.3186
▁horror	-11.3188
▁Avi	-11.319
▁bars	-11.319
mmm	-11.3192
▁Uncle	-11.3196
nigga	-11.3198
ui	-11.3199
daniel	-11.3199
-7	-11.3201
National	-11.3202
▁pig	-11.3202
▁Payet	-11.3202
▁burning	-11.3206
▁Japan	-11.3206
▁signs	-11.3207
▁hyped	-11.3207
▁Dang	-11.3208
▁Va	-11.321
break	-11.3212
last	-11.3215
▁Tea	-11.3215
Sky	-11.3219
▁Mf	-11.322
▁Manchester	-11.3222
▁awwww	-11.3223
▁Andrew	-11.3223
▁ABOUT	-11.3225
▁MOVIE	-11.3225
▁headphones	-11.3225
sti	-11.3225
▁Goodbye	-11.3226
vid	-11.3228
AK	-11.3229
Guy	-11.3231
rod	-11.3231
▁dies	-11.3231
Bra	-11.3232
▁strange	-11.3233
▁Homie	-11.3235
▁referendum	-11.3237
▁Dog	-11.324
lets	-11.3245
ISL	-11.3246
ArianaGrande	-11.325
Ryan	-11.3251
fam	-11.3252
bree	-11.3258
▁SAVAGE	-11.326
ify	-11.3263
▁nothin	-11.3265
▁average	-11.3267
▁considering	-11.3267
▁Fight	-11.327
hl	-11.3271
▁brows	-11.3271
▁(#	-11.3272
jane	-11.3275
▁HAHA	-11.3278
fm	-11.3284
▁European	-11.3285
▁ILY	-11.3285
exo	-11.3285
▁Years	-11.3285
▁log	-11.3286
...#	-11.3286
▁bothered	-11.3286
far	-11.3287
=1	-11.3287
▁streaming	-11.3288
ros	-11.3294
▁Fast	-11.3295
▁certainly	-11.3295
uring	-11.3296
▁Key	-11.3298
Always	-11.3298
▁connect	-11.33
▁Eric	-11.33
need	-11.3301
AGE	-11.3301
▁MN	-11.3303
▁dab	-11.3304
Kar	-11.3305
▁bikini	-11.3305
true	-11.3308
▁fck	-11.3318
CT	-11.332
Tom	-11.3323
▁poster	-11.3323
▁Either	-11.3327
▁florist	-11.3327
▁joint	-11.3329
▁Match	-11.3332
▁steps	-11.3332
▁boost	-11.3334
point	-11.3334
▁salt	-11.3334
▁RO	-11.3338
▁#4	-11.3339
ua	-11.334
season	-11.3343
▁Soooo	-11.3344
vert	-11.3344
gold	-11.3345
▁Point	-11.3348
MTV	-11.3349
▁eventually	-11.3352
▁Easy	-11.3355
▁Fu	-11.3359
wing	-11.3362
▁cracked	-11.3365
pon	-11.3375
pack	-11.3376
▁liquor	-11.3378
▁opposite	-11.3378
▁multiple	-11.3378
▁TX	-11.3381
YA	-11.3382
▁chop	-11.3382
32:	-11.3382
james	-11.3385
▁struggling	-11.3387
shot	-11.3388
▁alike	-11.339
jin	-11.339
Tre	-11.3391
▁Euros	-11.3393
?!?!	-11.3403
dm	-11.3404
▁Port	-11.3405
▁besides	-11.341
pur	-11.3412
lc	-11.3415
▁Away	-11.3418
▁Ji	-11.3421
illy	-11.3421
▁saturday	-11.3423
zan	-11.3426
▁sake	-11.3429
▁palette	-11.3431
Bitch	-11.3433
▁path	-11.3434
▁Thing	-11.3435
▁hung	-11.3435
▁Garden	-11.3442
▁seats	-11.3443
Zayn	-11.3445
charles	-11.345
UR	-11.345
▁Rob	-11.3451
▁Simple	-11.3453
▁forehead	-11.3456
▁Airport	-11.3456
▁bu	-11.3459
▁Ash	-11.3459
shawn	-11.3461
short	-11.3461
ع	-11.3462
▁BC	-11.3462
▁oppa	-11.3463
▁HEY	-11.3463
▁powerful	-11.3465
▁security	-11.3467
▁bean	-11.3471
▁hill	-11.3472
▁clip	-11.3472
▁Chance	-11.3473
lang	-11.348
HD	-11.3481
▁Gay	-11.3484
▁EX	-11.3488
fat	-11.349
print	-11.3493
ets	-11.3493
▁Russian	-11.3496
▁assume	-11.3496
▁infinite	-11.3499
▁Liam	-11.3499
▁Truth	-11.35
FB	-11.3504
▁alert	-11.3504
▁Jr	-11.3506
▁Vardy	-11.3508
GE	-11.351
▁CLICK	-11.3511
Fest	-11.3511
Tech	-11.3512
pl	-11.3514
▁ref	-11.3521
▁chin	-11.3523
wish	-11.3524
has	-11.3525
TW	-11.3525
▁Moon	-11.3527
▁Die	-11.3527
dle	-11.3532
▁PLS	-11.3533
▁shipping	-11.3535
ison	-11.3539
▁Bale	-11.3539
Tri	-11.3546
cast	-11.3549
▁lap	-11.355
sco	-11.355
TBT	-11.3553
gggg	-11.3556
MP	-11.3561
cra	-11.3563
▁SE	-11.3565
▁dr	-11.3567
Pink	-11.3568
Glo	-11.3572
jah	-11.3572
▁boots	-11.3573
▁Town	-11.3573
▁Church	-11.3577
▁cheated	-11.3578
▁THEM	-11.3582
▁shark	-11.3584
▁Jake	-11.3585
▁inspire	-11.3585
pers	-11.3586
wh	-11.3589
▁snacks	-11.3592
▁incredibly	-11.3595
▁Beat	-11.3596
▁Fake	-11.3597
▁argument	-11.3598
RedWhiteAndBooty	-11.3604
▁Leo	-11.3605
babe	-11.3606
asi	-11.3606
▁Fine	-11.3607
cause	-11.3609
▁Bur	-11.361
Mind	-11.3611
▁por	-11.3611
AC	-11.3612
Head	-11.3612
oli	-11.3614
▁PRE	-11.3614
▁$200	-11.3615
▁Mean	-11.3615
beat	-11.3616
▁politics	-11.3616
▁prices	-11.3616
▁obvious	-11.3617
phone	-11.3618
▁Welp	-11.3619
UN	-11.362
▁Kat	-11.3622
Week	-11.3623
EW	-11.3623
mir	-11.3623
▁Ch	-11.3628
▁DAYS	-11.3628
▁properly	-11.3629
▁chip	-11.363
▁Gen	-11.3632
▁sorted	-11.3632
gaming	-11.364
▁chair	-11.3644
▁dealing	-11.3648
sale	-11.3652
▁Kelly	-11.3654
shan	-11.3654
oon	-11.3661
▁ab	-11.3666
▁cereal	-11.3666
ory	-11.3667
char	-11.3668
▁Uh	-11.3669
▁Chocolate	-11.3671
▁grace	-11.3672
▁HIS	-11.3673
;3	-11.3673
▁pounds	-11.3675
buy	-11.3677
scott	-11.3678
Luke	-11.3678
Style	-11.3678
loves	-11.3679
rp	-11.3681
ition	-11.3682
Tae	-11.3682
▁Mum	-11.3685
▁nuts	-11.3687
▁stack	-11.3691
▁Africa	-11.3692
▁BBQ	-11.3693
▁MI	-11.3694
▁Ab	-11.3697
din	-11.3702
▁Guy	-11.3703
▁bias	-11.3704
KS	-11.3705
xy	-11.3706
▁outfits	-11.3709
Que	-11.371
azi	-11.371
▁xoxo	-11.3711
hole	-11.3713
▁Eating	-11.3713
ique	-11.3714
▁popular	-11.3716
▁bounce	-11.372
▁peaceful	-11.3723
Yung	-11.3724
▁lifetime	-11.3724
▁ole	-11.3725
rg	-11.3727
▁laundry	-11.3728
▁Soul	-11.3728
▁Bang	-11.3731
▁filters	-11.3732
Vote	-11.3734
▁Za	-11.3739
▁snake	-11.374
vsco	-11.3743
There	-11.3744
▁irritating	-11.3745
▁culture	-11.3747
▁doesnt	-11.3748
til	-11.375
▁kyrie	-11.3755
▁base	-11.3762
▁retweeted	-11.3766
▁Col	-11.3767
books	-11.3768
▁November	-11.3768
▁coolest	-11.3771
Park	-11.3772
var	-11.3774
▁Tha	-11.3781
▁Hurt	-11.3781
▁miserable	-11.3781
▁Running	-11.3781
▁Potter	-11.3782
yana	-11.3785
▁sober	-11.3789
▁MUSEUM	-11.379
lf	-11.3791
Jr	-11.3793
yi	-11.3794
rilla	-11.3795
▁sho	-11.3797
VA	-11.3799
Way	-11.3799
▁Hart	-11.3804
cro	-11.3806
▁Sound	-11.3812
▁chances	-11.3813
▁Sean	-11.3813
▁LETS	-11.3819
▁Wall	-11.3819
birthday	-11.3819
ock	-11.3821
▁parade	-11.3821
▁China	-11.3821
▁TBH	-11.3821
uf	-11.3823
▁Biggest	-11.3826
▁dunno	-11.3827
▁SALE	-11.3828
▁Luv	-11.3828
mins	-11.383
tia	-11.3831
06:	-11.3831
-4	-11.3832
▁41	-11.3835
nin	-11.3835
▁waited	-11.3837
▁thirsty	-11.3839
▁vent	-11.384
▁smack	-11.384
93:	-11.3841
▁Boston	-11.3841
▁50%	-11.3845
▁section	-11.3845
▁puts	-11.3846
▁mask	-11.3848
NEW	-11.3854
whilst	-11.3862
rey	-11.3865
▁Hay	-11.3866
FindingDory	-11.3871
▁Mini	-11.3872
▁replace	-11.3873
_2	-11.3875
▁Hannah	-11.3876
▁Bru	-11.3877
▁Er	-11.3879
Wild	-11.388
▁bri	-11.3883
nat	-11.3883
phy	-11.3884
▁curious	-11.389
▁Ohio	-11.3895
▁route	-11.3902
zing	-11.3903
▁grinding	-11.3904
born	-11.3904
▁nightmare	-11.3908
▁nudes	-11.3909
▁advance	-11.3909
▁Mel	-11.3912
▁prize	-11.3913
hur	-11.3916
▁sensitive	-11.3916
▁professional	-11.3918
mine	-11.3919
Monster	-11.392
▁Turkey	-11.392
mie	-11.3922
▁idgaf	-11.3922
Jon	-11.3923
sara	-11.3925
▁Victoria	-11.3926
▁Plan	-11.3928
proud	-11.393
▁affected	-11.3932
▁Sum	-11.3935
▁Hungry	-11.3938
▁dreaming	-11.3944
Mom	-11.3945
▁beg	-11.3946
ters	-11.3953
LM	-11.3957
▁timing	-11.3957
000	-11.3957
Savage	-11.3958
TonyAwards	-11.3962
▁meme	-11.3969
vent	-11.3972
▁Lay	-11.3974
burg	-11.3975
Beautiful	-11.3975
▁lmaoo	-11.3976
▁Wat	-11.3977
TR	-11.398
BigAssPoolParty	-11.398
pper	-11.3981
GB	-11.3985
grace	-11.3987
Ver	-11.3987
▁nick	-11.3989
▁300	-11.399
▁universe	-11.399
▁Brandon	-11.3991
▁Emily	-11.3992
give	-11.3992
▁roast	-11.3995
Travel	-11.3998
uma	-11.4005
▁cruel	-11.4006
▁Wo	-11.4007
▁Goodluck	-11.4007
cks	-11.4009
Yes	-11.4014
▁ph	-11.4016
▁wicked	-11.4016
▁entertaining	-11.4018
ution	-11.402
▁spoke	-11.4023
OM	-11.4024
▁wen	-11.4025
ONE	-11.4025
▁Magic	-11.4026
vegan	-11.4029
▁Sal	-11.403
▁GoT	-11.4033
▁touching	-11.4035
▁️️️️	-11.4036
state	-11.404
▁exo	-11.4042
▁rings	-11.4043
▁semi	-11.4045
Power	-11.4048
part	-11.4048
▁Social	-11.4048
▁material	-11.4049
▁program	-11.405
▁spam	-11.4052
walk	-11.4054
▁Cap	-11.4055
▁crash	-11.4057
TI	-11.4064
oni	-11.4065
▁thighs	-11.4067
Army	-11.4068
ndo	-11.4068
JK	-11.4069
▁Stupid	-11.4071
▁Papa	-11.4075
song	-11.4076
▁bay	-11.4076
▁Card	-11.4078
▁Myself	-11.4079
kins	-11.4079
paul	-11.4082
▁HI	-11.4082
▁Local	-11.4083
gra	-11.4087
britt	-11.4088
▁kicks	-11.4088
vr	-11.4089
Modish	-11.409
ookie	-11.4091
▁Stan	-11.4093
▁reminded	-11.4096
▁Pic	-11.4097
▁Squad	-11.4105
▁DR	-11.4106
Xbox	-11.4107
ction	-11.4112
▁vlog	-11.4114
▁Huge	-11.4115
▁shoulda	-11.4115
▁kissing	-11.4116
ب	-11.4117
Per	-11.4122
Bre	-11.4124
▁Earth	-11.4125
▁bench	-11.4125
▁hmmm	-11.4131
los	-11.4133
aar	-11.4134
▁Dreams	-11.414
▁marathon	-11.4142
first	-11.4143
▁depends	-11.4144
▁Worst	-11.4146
abby	-11.4146
Air	-11.4147
▁Dean	-11.4147
▁prince	-11.4147
▁AMO	-11.4148
▁donuts	-11.4149
First	-11.415
kers	-11.415
▁pit	-11.4151
wolf	-11.4154
▁piercing	-11.4155
▁discount	-11.4156
▁yessss	-11.4156
▁TON	-11.4157
▁Bed	-11.4157
▁cho	-11.4158
▁^	-11.4158
▁Officially	-11.4159
Smith	-11.416
IAm	-11.4163
▁distant	-11.4164
oe	-11.4164
UT	-11.4165
ator	-11.4166
▁WORK	-11.4172
DR	-11.4172
▁Harmony	-11.4173
place	-11.4174
Jones	-11.4175
▁Del	-11.4177
▁potential	-11.4178
PrayForChristina	-11.418
nature	-11.4182
▁9/10	-11.4182
▁Side	-11.4183
▁connection	-11.4185
▁hangover	-11.4185
lla	-11.4188
▁Robert	-11.4189
MF	-11.4191
▁Central	-11.4192
▁wallet	-11.4194
▁Dinner	-11.4194
▁Pan	-11.4196
▁habit	-11.4199
Sarah	-11.4199
wy	-11.4202
▁cooked	-11.4202
▁delivered	-11.4203
82	-11.4203
▁Words	-11.4203
▁Glastonbury	-11.4205
▁Ate	-11.4205
▁£1	-11.4206
▁Bank	-11.4206
▁shifts	-11.4207
nit	-11.4211
▁cor	-11.4211
▁Flowers	-11.4212
DY	-11.4213
05:	-11.4213
alyssa	-11.4215
▁Jus	-11.4216
▁xo	-11.4217
▁cancelled	-11.422
Fashion	-11.4225
▁product	-11.4228
▁highly	-11.4228
▁KS	-11.4229
▁flies	-11.423
bie	-11.4233
NI	-11.4235
▁bust	-11.4236
▁network	-11.424
Hit	-11.4243
▁Whenever	-11.4244
▁BB	-11.4244
ome	-11.4244
▁celebration	-11.4247
▁wing	-11.4247
▁replied	-11.4248
▁9/8	-11.4248
-10	-11.4248
▁Wit	-11.4249
Chan	-11.4251
▁Def	-11.4252
▁hater	-11.4255
▁Wouldn	-11.4257
▁Hand	-11.4259
phe	-11.4261
▁Thomas	-11.4263
▁foo	-11.4265
▁stopping	-11.427
▁:-)	-11.4272
Ly	-11.4273
cas	-11.4276
▁cruise	-11.4276
▁nerd	-11.4279
▁Dick	-11.4283
▁freedom	-11.4285
FreeformTV	-11.4285
▁7:30	-11.4286
▁pat	-11.4286
▁yelling	-11.4286
▁?!	-11.4288
shaw	-11.4288
gger	-11.4291
kes	-11.4296
DK	-11.4298
▁desperate	-11.4299
rai	-11.4303
▁unique	-11.4303
▁tech	-11.4303
▁sooner	-11.4305
hes	-11.4306
!!!!!!!	-11.4306
OT	-11.4306
▁Hii	-11.4307
▁information	-11.4309
Sexy	-11.4312
▁sang	-11.4313
ONG	-11.4314
▁Eye	-11.4315
▁ultimate	-11.4315
▁granted	-11.4318
▁anger	-11.4321
▁kitty	-11.4322
IRL	-11.4323
▁SOON	-11.4324
dot	-11.4326
▁dumbass	-11.4329
dogs	-11.4329
▁washed	-11.433
yaa	-11.4331
Son	-11.4339
▁gifts	-11.434
hop	-11.4347
▁Carolina	-11.4347
SP	-11.4348
Wednesday	-11.4349
▁Hollywood	-11.4349
▁pub	-11.435
Fit	-11.4353
▁junior	-11.4353
▁spa	-11.4356
nx	-11.4359
▁Burn	-11.4359
Shi	-11.4359
-6	-11.4362
-5	-11.4363
▁fur	-11.4364
Stop	-11.4365
cle	-11.4366
▁Blood	-11.4367
camp	-11.4369
LoveIsLove	-11.437
▁tri	-11.4372
ain	-11.4375
▁steph	-11.4377
lll	-11.4378
▁function	-11.4378
▁Irving	-11.4381
▁International	-11.4382
Doll	-11.4386
friday	-11.4388
▁Ran	-11.4388
LI	-11.439
dc	-11.4391
▁ourselves	-11.4392
▁fasting	-11.4393
▁Tra	-11.4393
▁sketch	-11.4393
77:	-11.4395
▁treats	-11.4396
ili	-11.4397
▁custom	-11.44
▁gi	-11.4401
kate	-11.4402
▁Brand	-11.4404
WATCH	-11.4407
press	-11.4407
jam	-11.4408
DolceAmore	-11.4408
▁weave	-11.441
XO	-11.441
▁Forget	-11.4412
▁foreign	-11.4412
Joe	-11.4413
sunday	-11.4413
▁annoy	-11.4415
▁mic	-11.4415
▁teaching	-11.4415
▁hall	-11.4419
wick	-11.4422
yyyyyy	-11.4422
road	-11.4423
▁selfish	-11.4424
▁YALL	-11.4426
bor	-11.4427
ALDUBALLMyLife	-11.4427
▁6:30	-11.4428
hall	-11.4428
▁Gary	-11.4428
▁nu	-11.4428
--	-11.4431
▁lemon	-11.4434
▁knowledge	-11.4436
▁Fly	-11.4436
▁bron	-11.4437
ern	-11.4437
rest	-11.4438
▁bald	-11.4438
▁Room	-11.4438
color	-11.4439
hab	-11.4445
▁Ham	-11.4445
▁sissy	-11.4446
Fresh	-11.4446
iki	-11.4449
raw	-11.445
IR	-11.4462
▁legal	-11.4462
▁reunion	-11.4466
▁zero	-11.4466
▁bucket	-11.4466
▁spring	-11.4473
NG	-11.4475
bbie	-11.4479
gri	-11.448
cess	-11.4481
▁giant	-11.4486
▁pals	-11.4487
bus	-11.4489
pho	-11.4491
▁vegan	-11.4492
jas	-11.4495
▁Sitting	-11.4495
▁reached	-11.4499
▁silent	-11.4507
▁harry	-11.451
▁Dawg	-11.4511
▁GOAT	-11.4512
▁Color	-11.4513
▁Trailer	-11.4513
▁WOULD	-11.4514
▁Seen	-11.4514
pu	-11.4514
ians	-11.4514
▁fridge	-11.4515
▁realised	-11.4516
▁Spotify	-11.4516
▁Anniversary	-11.4517
App	-11.4518
dh	-11.452
▁resist	-11.4524
Hitz	-11.4526
jessica	-11.4528
▁troll	-11.4529
▁Yess	-11.4535
KO	-11.4537
▁FRIEND	-11.4541
▁Project	-11.4542
▁cancel	-11.4543
29:	-11.4544
▁Adele	-11.4544
ists	-11.4544
▁spray	-11.4544
loo	-11.4546
د	-11.4547
▁drew	-11.4548
PO	-11.4548
eri	-11.455
▁Worth	-11.4551
▁Fifth	-11.4552
agan	-11.4556
▁follower	-11.4556
▁whose	-11.4557
▁artists	-11.4561
▁smoothie	-11.4561
mil	-11.4562
▁romantic	-11.4564
▁Fe	-11.4565
▁KING	-11.457
▁fishing	-11.4571
katie	-11.4571
▁depressing	-11.4571
▁debate	-11.4572
▁Classic	-11.4574
▁fits	-11.4574
▁Asian	-11.4574
▁Happiness	-11.4576
▁split	-11.4577
SUBSCRIBE	-11.458
Hard	-11.4583
▁Phil	-11.4586
▁Basically	-11.4591
▁Dinah	-11.4591
boi	-11.4593
▁HEART	-11.4595
did	-11.4602
OC	-11.4603
▁dresses	-11.4603
▁Disneyland	-11.4607
UL	-11.4608
OFFICIAL	-11.461
▁marriage	-11.461
▁Rooney	-11.4611
▁Woman	-11.4613
▁commercial	-11.4615
▁Luck	-11.4619
dae	-11.462
▁Official	-11.462
▁Las	-11.4621
lovely	-11.4623
▁Voice	-11.4626
▁roommate	-11.4627
iiiii	-11.4628
▁relevant	-11.463
matt	-11.463
▁further	-11.463
Shawn	-11.4634
▁Mag	-11.4639
▁CONCERT	-11.4639
mus	-11.4644
AJ	-11.4645
mah	-11.4645
ATE	-11.4646
COYBIG	-11.4649
▁DEAD	-11.465
▁entertainment	-11.4651
▁99	-11.4652
LAND	-11.4652
▁owner	-11.4652
tas	-11.4654
▁Thunder	-11.4658
EURefResults	-11.4659
Season	-11.466
hor	-11.4661
▁thumbs	-11.4663
▁coast	-11.4665
Band	-11.4667
▁winners	-11.4667
▁goodmorning	-11.4667
▁finishing	-11.4668
PCGamingShow	-11.4669
▁merch	-11.4669
then	-11.4669
▁Mid	-11.4673
atic	-11.4673
▁Danny	-11.4676
awa	-11.4676
imp	-11.4676
RR	-11.4677
▁parts	-11.4678
ire	-11.4679
▁edge	-11.4682
▁jumped	-11.4683
Video	-11.4685
Thats	-11.4685
▁greys	-11.4685
date	-11.4688
▁Pass	-11.4689
quin	-11.469
KING	-11.469
▁exit	-11.4691
▁tru	-11.4691
lot	-11.4691
▁treating	-11.4693
▁taco	-11.4694
▁Reading	-11.4694
iva	-11.4697
ase	-11.4698
▁Ahh	-11.47
fresh	-11.4701
fin	-11.4703
monday	-11.4704
▁braces	-11.4704
ged	-11.4704
lab	-11.4705
nnnnn	-11.4705
WWE	-11.4705
▁replying	-11.4707
LT	-11.4708
▁Bday	-11.4708
▁recognize	-11.4712
▁Mall	-11.4714
▁amen	-11.4716
▁theater	-11.4718
▁concept	-11.4719
▁CON	-11.4721
anti	-11.4721
▁Block	-11.4723
▁falls	-11.4723
Th	-11.4725
▁Hmmm	-11.4726
Rob	-11.4726
▁vine	-11.4727
▁political	-11.4727
▁MT	-11.4729
▁answering	-11.473
bble	-11.473
▁Timmy	-11.473
▁Rich	-11.4731
▁height	-11.4731
bone	-11.4731
Soul	-11.4732
▁theme	-11.4732
GS	-11.4734
-8	-11.4737
aaah	-11.4742
▁beside	-11.4743
east	-11.4745
▁square	-11.4748
▁Artist	-11.4748
▁bands	-11.4749
eon	-11.4752
▁Females	-11.4754
Far	-11.4757
osh	-11.4758
▁dramatic	-11.4762
▁Mane	-11.4764
squad	-11.4764
▁vids	-11.4765
▁greet	-11.4765
▁Shot	-11.4766
fans	-11.4767
AND	-11.4768
BBUK	-11.4769
▁Dar	-11.477
ASS	-11.4774
▁recipe	-11.4774
▁Pussy	-11.4776
dio	-11.4778
js	-11.4779
lake	-11.478
esha	-11.4781
Ram	-11.4782
ising	-11.4782
▁:')	-11.4785
hir	-11.4786
▁sentence	-11.4788
▁balance	-11.4791
▁fired	-11.4795
ofthe	-11.4795
▁pancakes	-11.4797
▁31	-11.4798
zar	-11.4799
▁ch	-11.4799
street	-11.4802
▁Bit	-11.4805
▁shooter	-11.4807
-9	-11.4807
Bay	-11.4809
▁weekends	-11.4809
iness	-11.481
Ve	-11.4812
▁badass	-11.4812
▁represent	-11.4813
ilove	-11.4814
▁thousand	-11.4815
zie	-11.4816
▁Asf	-11.4817
▁donate	-11.4818
▁react	-11.4818
▁MDT	-11.482
TB	-11.482
Retweet	-11.482
zone	-11.4821
alia	-11.4821
▁campus	-11.4822
nge	-11.4822
aro	-11.4823
▁verse	-11.4826
sc	-11.4826
▁Jersey	-11.4826
▁Leaving	-11.4827
▁Washington	-11.4828
▁waist	-11.4828
mill	-11.4828
▁Dumb	-11.4829
▁mug	-11.483
▁impressed	-11.4835
EEE	-11.4837
omo	-11.4838
▁drops	-11.484
Royal	-11.4841
▁neighbors	-11.4842
61	-11.4846
▁Hamilton	-11.4847
kha	-11.4847
▁tumblr	-11.485
sad	-11.4852
▁Georgia	-11.4853
▁hustle	-11.4853
▁attached	-11.4856
▁purge	-11.4857
jordan	-11.4858
▁......	-11.4858
▁miracle	-11.4863
▁Place	-11.4865
▁Charlotte	-11.4868
▁multi	-11.4871
Save	-11.4871
▁yoga	-11.4872
▁accepted	-11.4872
▁tn	-11.4873
▁Senior	-11.4873
▁continues	-11.4874
Proud	-11.4874
▁Glo	-11.4875
eth	-11.4875
Des	-11.4875
ras	-11.4876
▁pound	-11.4876
▁spit	-11.4879
sorry	-11.4882
▁Tae	-11.4886
▁Oops	-11.4886
▁Gang	-11.4887
▁cutiepie	-11.4887
▁Wonderful	-11.4895
ن	-11.4897
▁Ce	-11.4898
▁Ross	-11.4898
▁goddess	-11.4899
▁Line	-11.4899
▁Cafe	-11.49
▁Liverpool	-11.4901
▁humans	-11.4901
▁movement	-11.4902
iri	-11.4902
▁newest	-11.4903
▁WEEK	-11.4905
women	-11.4907
▁slice	-11.4908
Challenge	-11.4908
▁Stephen	-11.4909
▁Wasn	-11.4918
WIN	-11.492
▁traveling	-11.492
▁LO	-11.4925
▁spoilers	-11.4925
tru	-11.4926
ium	-11.4926
bc	-11.4928
morgan	-11.493
▁Laura	-11.4933
Post	-11.4936
▁washing	-11.4937
very	-11.4938
lash	-11.4941
ute	-11.4942
omg	-11.4945
▁photographer	-11.4949
▁Tried	-11.4953
▁worrying	-11.4956
▁GOING	-11.4957
▁loser	-11.4958
▁Finished	-11.496
▁stretch	-11.4964
▁Bernie	-11.4964
▁waves	-11.4966
twitter	-11.4969
Photo	-11.497
91	-11.497
own	-11.497
online	-11.4972
▁SP	-11.4974
▁adding	-11.4975
wards	-11.4976
▁Person	-11.4976
▁Sleeping	-11.4976
▁monkey	-11.4976
▁appearance	-11.4976
▁SD	-11.4978
KA	-11.498
▁minds	-11.4983
▁uncomfortable	-11.4986
▁Strong	-11.4986
EY	-11.4987
och	-11.4993
wild	-11.4993
▁havent	-11.4994
▁hardly	-11.4995
Want	-11.4997
▁grill	-11.4998
▁Awh	-11.5001
Adam	-11.5001
▁camping	-11.5001
NL	-11.5003
▁science	-11.5005
▁Ride	-11.5005
▁AL	-11.5006
▁uniform	-11.5007
▁Awwww	-11.5007
tag	-11.5009
▁Hero	-11.5009
▁heal	-11.5012
Smile	-11.5014
▁lmaooo	-11.5015
▁filming	-11.5015
▁cheeks	-11.5016
Fire	-11.5018
▁moe	-11.5019
»	-11.502
Football	-11.502
AA	-11.5025
▁UR	-11.5025
▁Maine	-11.5026
nne	-11.5027
▁peanut	-11.5027
fy	-11.5028
check	-11.5028
PL	-11.5029
▁euros	-11.503
child	-11.5032
cum	-11.5036
him	-11.5037
▁excitement	-11.5037
▁depressed	-11.5037
bat	-11.5039
dev	-11.5039
mike	-11.5039
▁Eyes	-11.504
▁Band	-11.504
lisa	-11.5043
mix	-11.5044
▁Six	-11.5044
BBC	-11.5046
▁Country	-11.5046
▁Kyle	-11.5051
Porn	-11.5051
Jess	-11.5052
cie	-11.5054
amber	-11.5055
olivia	-11.5055
MU	-11.5056
▁$20	-11.5056
▁closing	-11.5057
▁BBC	-11.5062
▁Step	-11.5062
▁lean	-11.5064
dz	-11.5065
▁turtle	-11.5065
▁ew	-11.5065
kids	-11.5066
▁poop	-11.5066
▁Edit	-11.5066
Down	-11.5073
ici	-11.5076
▁AR	-11.5077
gent	-11.5078
ering	-11.508
Made	-11.5082
jk	-11.5083
bakers	-11.5084
coming	-11.5086
Dat	-11.5086
▁center	-11.5086
dam	-11.509
cial	-11.5092
RP	-11.5092
ene	-11.5094
▁preciate	-11.5098
Scott	-11.5101
0,000	-11.5101
order	-11.5101
▁Challenge	-11.5106
▁SUMMER	-11.5108
Han	-11.5108
▁range	-11.511
▁sponsor	-11.511
▁genius	-11.5111
Camp	-11.5111
oso	-11.5111
▁youtube	-11.5112
cco	-11.5112
▁Maria	-11.5113
▁Saint	-11.5116
▁VERY	-11.5118
Mel	-11.5119
▁tail	-11.5119
▁curly	-11.5121
▁bunny	-11.5121
▁visiting	-11.5121
nate	-11.5123
▁fee	-11.5126
▁Clinton	-11.5127
▁EDT	-11.513
Jane	-11.5132
Va	-11.5134
Dance	-11.5134
mini	-11.5137
""	-11.5137
▁contract	-11.5139
▁swimwear	-11.5139
▁NIGGA	-11.514
aught	-11.514
eyes	-11.514
Look	-11.5143
▁ooh	-11.5145
iq	-11.5148
▁fest	-11.5149
▁gutted	-11.5149
Hair	-11.515
▁OT	-11.5152
hiphop	-11.5153
▁dirt	-11.5153
▁anime	-11.5153
Nigga	-11.5154
▁Event	-11.5154
[	-11.5155
Run	-11.5156
iti	-11.5156
ر	-11.5157
▁promote	-11.5158
▁injured	-11.5159
Bet	-11.5161
▁cow	-11.5162
fall	-11.5167
▁Heard	-11.5168
July	-11.5169
▁defense	-11.517
▁HELP	-11.517
bye	-11.517
People	-11.5174
itch	-11.5177
▁Cake	-11.5178
bur	-11.518
▁tmr	-11.518
ult	-11.5183
▁Anthony	-11.5184
▁iron	-11.5188
▁nerve	-11.5189
Gold	-11.519
dies	-11.519
nell	-11.5193
hit	-11.5195
som	-11.5197
▁Master	-11.5197
cs	-11.5199
▁auntie	-11.5207
ross	-11.5207
▁Par	-11.5207
Sal	-11.5208
▁stunt	-11.5208
roy	-11.521
▁irrelevant	-11.5211
▁pathetic	-11.5211
▁County	-11.5211
iro	-11.5212
▁iftar	-11.5216
JA	-11.5218
▁Jessica	-11.5219
▁BF	-11.522
▁bold	-11.522
▁bottles	-11.522
rene	-11.523
GameOfThrones	-11.5231
▁routine	-11.5231
▁fella	-11.5232
RAW	-11.5233
▁slut	-11.5233
▁Self	-11.5236
flower	-11.5239
▁Hoe	-11.5241
▁hubby	-11.5242
▁escape	-11.5242
▁Grande	-11.5244
▁logo	-11.5245
▁Jen	-11.5246
▁Bee	-11.5248
▁Brian	-11.525
▁pipe	-11.5252
▁prison	-11.5253
shes	-11.5253
▁Sis	-11.5254
▁Kick	-11.5257
max	-11.5258
SW	-11.5259
Ny	-11.526
▁ce	-11.526
▁Couple	-11.526
▁RN	-11.526
▁worldwide	-11.5261
▁Slay	-11.5264
▁bridge	-11.5264
▁positivity	-11.5266
▁DMs	-11.5267
ware	-11.5267
▁Fri	-11.5267
▁karma	-11.527
▁Wrong	-11.5273
raa	-11.5274
▁Wi	-11.5276
▁lifestyle	-11.5277
▁Rio	-11.5278
pha	-11.5279
▁Anyway	-11.5281
▁condition	-11.5282
ssa	-11.5282
▁Kar	-11.5282
jung	-11.5283
kia	-11.5283
▁lemonade	-11.5283
▁Tagged	-11.5284
▁assist	-11.5284
martin	-11.5285
▁bare	-11.5289
▁Small	-11.529
▁exclusive	-11.5294
▁july	-11.5295
▁Btw	-11.5297
Words	-11.53
loveisland	-11.5302
▁funeral	-11.5304
Nu	-11.5305
test	-11.5306
ux	-11.5307
▁aware	-11.5308
steph	-11.5309
▁bru	-11.5313
michelle	-11.5313
MIN	-11.5314
rob	-11.5316
▁joined	-11.5318
pac	-11.532
▁Smoke	-11.532
▁bee	-11.532
▁disappoint	-11.532
bert	-11.5321
▁becomes	-11.5322
nya	-11.5325
▁Ku	-11.5335
▁PORN	-11.5336
pad	-11.5338
PER	-11.534
▁wood	-11.534
▁mentally	-11.5341
race	-11.5342
300	-11.5343
▁disagree	-11.5346
▁medicine	-11.5346
▁Wendy	-11.5349
strong	-11.5349
kindle	-11.5351
bed	-11.5352
▁fla	-11.5353
Bae	-11.5353
▁Monster	-11.5355
▁podcast	-11.5356
▁League	-11.5359
▁TAKE	-11.5359
laura	-11.5362
Jan	-11.5363
▁topic	-11.5363
RM	-11.5366
▁ALERT	-11.5367
▁vi	-11.5367
▁9:30	-11.5367
▁battery	-11.537
▁throughout	-11.537
▁Style	-11.5375
▁Sports	-11.5377
▁definition	-11.5377
Daniel	-11.5378
ised	-11.5382
Light	-11.5383
▁anthem	-11.5384
sion	-11.5384
BI	-11.5388
▁roof	-11.5391
▁freakin	-11.5391
stro	-11.5392
▁Cover	-11.5393
▁era	-11.5393
hil	-11.5394
YouTube	-11.5394
▁Clean	-11.5397
▁Winner	-11.5398
ENGWAL	-11.5399
bts	-11.5407
beth	-11.5409
mat	-11.5409
▁pissing	-11.5412
▁rant	-11.5416
Lynn	-11.5417
roo	-11.5419
▁Jan	-11.542
▁bake	-11.5422
ILL	-11.5423
ICE	-11.5426
▁bathing	-11.5427
ova	-11.543
▁Kendrick	-11.543
Gee	-11.5432
lip	-11.5432
▁BEEN	-11.5433
▁Gi	-11.5433
Maria	-11.5439
table	-11.544
▁Til	-11.544
lord	-11.5441
▁Rachel	-11.5443
▁shared	-11.5446
▁Spring	-11.5447
phi	-11.5448
ente	-11.5448
▁$500	-11.5449
▁VISIT	-11.5451
▁immediately	-11.5451
▁sunglasses	-11.5451
▁prepare	-11.5456
▁knees	-11.5457
▁shrimp	-11.5461
core	-11.5463
▁desire	-11.5465
▁Thoughts	-11.5466
▁eu	-11.547
Know	-11.547
▁slim	-11.5471
▁slaying	-11.5474
▁woulda	-11.5479
▁Istanbul	-11.5479
tine	-11.5482
Rio	-11.5482
Cal	-11.5482
▁Fw	-11.5483
lish	-11.5483
ESP	-11.5487
▁paradise	-11.5489
▁Diego	-11.5493
▁collab	-11.5493
change	-11.5493
▁Ci	-11.5494
▁Honey	-11.5497
haa	-11.5499
▁HAHAHAHA	-11.5499
▁bob	-11.55
▁Bre	-11.55
▁dentist	-11.5504
Shot	-11.5504
America	-11.5505
Ye	-11.5509
FI	-11.5511
▁stays	-11.5512
▁oo	-11.5512
zen	-11.5512
uni	-11.5513
▁menu	-11.5513
▁Blessings	-11.5515
▁spare	-11.5517
▁OG	-11.5517
▁compared	-11.5525
nea	-11.5526
▁scare	-11.5531
AST	-11.5532
▁Fingers	-11.5536
▁nude	-11.5539
▁65	-11.5541
LOW	-11.5541
▁ankle	-11.5541
▁Lmaoo	-11.5542
▁Rap	-11.5543
▁opinions	-11.5549
▁DOING	-11.5552
▁lessons	-11.5554
▁Bon	-11.5554
Fr	-11.5556
▁!!!!!	-11.5556
ema	-11.5558
word	-11.556
bbloggers	-11.5561
HUN	-11.5561
▁keeper	-11.5561
▁FA	-11.5561
jean	-11.5562
artist	-11.5563
▁Ocean	-11.5565
▁Started	-11.5565
▁bonus	-11.5569
IP	-11.5569
▁abs	-11.5574
▁Walking	-11.5575
▁mc	-11.5576
▁Blake	-11.5576
▁Ve	-11.5576
▁HS	-11.5578
▁borrow	-11.5578
▁5:30	-11.5579
▁April	-11.5579
▁Dee	-11.5581
ianna	-11.5581
▁password	-11.5582
IV	-11.5585
kel	-11.5586
tell	-11.5586
▁Zara	-11.5586
▁Morgan	-11.5587
▁facebook	-11.5589
dah	-11.5591
jd	-11.5594
!)	-11.5595
▁2012	-11.5596
zay	-11.5597
▁PLAY	-11.5597
▁Desiigner	-11.5597
ination	-11.5597
sum	-11.5598
▁map	-11.5599
▁CAR	-11.5601
fair	-11.5602
jon	-11.5604
▁Sister	-11.5607
Ramadan	-11.5608
chin	-11.5611
ddle	-11.5614
▁desk	-11.5618
▁huhu	-11.5618
Cup	-11.5619
licious	-11.562
▁noooo	-11.5621
lhez	-11.5621
▁Grind	-11.5622
▁diss	-11.5622
Link	-11.5622
Par	-11.5624
ootd	-11.5626
▁Richard	-11.5627
▁discuss	-11.5628
–	-11.563
Squad	-11.5631
▁Available	-11.5631
▁£	-11.5632
Coach	-11.5632
RN	-11.5634
Last	-11.5634
▁slightly	-11.5634
▁Selfie	-11.5635
▁Online	-11.5636
▁lower	-11.5642
▁Interview	-11.5643
▁false	-11.5643
jade	-11.5643
▁sharp	-11.5643
▁Muslim	-11.5644
▁FIREWORK	-11.5645
ose	-11.5645
▁trips	-11.5646
▁Cutie	-11.5648
▁cheering	-11.5649
iko	-11.565
▁replies	-11.5654
▁Crying	-11.5654
DI	-11.5658
▁auto	-11.5658
▁forreal	-11.5659
Louis	-11.5659
phan	-11.5659
▁pumped	-11.5663
▁contacts	-11.5665
▁army	-11.5665
▁flawless	-11.5666
▁:/	-11.5668
▁fwy	-11.5669
▁jet	-11.567
nis	-11.5674
▁ZAYN	-11.5675
▁Fab	-11.5675
▁None	-11.5675
▁sec	-11.5676
▁Sydney	-11.5676
open	-11.5678
erin	-11.568
▁tysm	-11.568
▁Remix	-11.568
▁”	-11.5683
years	-11.5684
▁Together	-11.5687
▁Episode	-11.5689
▁Coldplay	-11.5691
▁odd	-11.5691
Eat	-11.5694
▁reward	-11.5695
Almighty	-11.5697
▁tied	-11.5698
▁Main	-11.5698
▁frame	-11.5701
▁Welsh	-11.5701
▁ash	-11.5701
ckle	-11.5703
aba	-11.5704
▁lurking	-11.5708
▁answered	-11.5708
▁pad	-11.571
▁Moving	-11.571
▁sink	-11.571
▁Quote	-11.572
Hate	-11.5721
▁PT	-11.5723
▁supporters	-11.5724
glo	-11.5725
emp	-11.5726
▁mor	-11.5727
▁understood	-11.5729
▁recording	-11.573
▁Captain	-11.573
cos	-11.5732
▁VA	-11.5734
pra	-11.5734
▁curse	-11.5736
OW	-11.5738
▁source	-11.5738
▁anatomy	-11.574
▁popcorn	-11.5741
▁char	-11.5743
ryn	-11.5746
▁Law	-11.575
▁Pure	-11.5751
▁Jose	-11.5751
trap	-11.5753
▁Aaron	-11.5755
American	-11.5757
OD	-11.5758
▁slip	-11.5761
crazy	-11.5762
▁CONGRATS	-11.5762
▁necessary	-11.5762
▁Seattle	-11.5763
▁heartbroken	-11.5763
mee	-11.5764
▁Cla	-11.577
Dre	-11.5773
Van	-11.5773
▁classy	-11.5773
Ana	-11.5773
▁PR	-11.5774
India	-11.5775
▁rent	-11.5778
Damn	-11.5782
Fam	-11.5783
▁Ky	-11.5783
▁Act	-11.5784
Ashley	-11.5785
▁Mia	-11.5786
▁Arsenal	-11.5787
jun	-11.5787
Cole	-11.5789
▁BAD	-11.5792
wer	-11.5795
▁complicated	-11.5795
Del	-11.5795
▁Ly	-11.5802
▁needing	-11.5802
▁HOPE	-11.5802
fil	-11.5806
▁obsession	-11.5806
▁Taken	-11.5806
▁Business	-11.5808
Pan	-11.5809
▁stalk	-11.5809
etta	-11.5809
▁Ten	-11.5811
Mal	-11.5811
about	-11.5812
▁Dj	-11.5813
savage	-11.5815
RC	-11.5816
story	-11.5819
Rae	-11.5822
ching	-11.5822
▁lion	-11.5822
rate	-11.5823
dope	-11.5824
▁Gar	-11.5827
lz	-11.5827
━	-11.5827
▁wesome	-11.5831
dri	-11.5833
▁probs	-11.5833
▁Bird	-11.5834
▁Rise	-11.5836
▁religion	-11.5839
▁government	-11.5839
▁covers	-11.5839
▁Shame	-11.584
▁Promise	-11.5841
INE	-11.5842
▁Nu	-11.5842
aving	-11.5843
▁Series	-11.5845
▁suits	-11.5849
▁eachother	-11.585
ates	-11.5851
Josh	-11.5852
cant	-11.5852
ori	-11.5853
▁Hands	-11.5853
▁tub	-11.5855
▁sunburn	-11.5856
TG	-11.5857
▁rec	-11.5858
▁entertain	-11.5859
▁EM	-11.586
▁scar	-11.5861
▁countries	-11.5862
▁freestyle	-11.5863
▁Drink	-11.5866
▁walks	-11.5866
Fe	-11.5867
SL	-11.5867
nel	-11.5868
▁victim	-11.5871
▁although	-11.5872
▁2013	-11.5873
▁coconut	-11.5874
serv	-11.5874
bomb	-11.5876
kah	-11.5876
stand	-11.5878
▁warning	-11.5878
▁flu	-11.5882
ALDUBOverloadKil	-11.5883
ALDUBT	-11.5884
▁Past	-11.5887
ANT	-11.5888
▁provide	-11.5889
▁yess	-11.5889
ick	-11.589
kas	-11.5893
▁nickname	-11.5894
▁ballot	-11.5894
▁disappear	-11.5895
▁Amazon	-11.5899
Where	-11.59
▁shining	-11.5902
▁killin	-11.5902
▁wherever	-11.5904
cock	-11.5909
▁mal	-11.5913
▁Sterling	-11.5913
▁Beyond	-11.5913
▁Kate	-11.5913
wine	-11.5914
Tho	-11.5916
sub	-11.5917
▁44	-11.5918
▁screw	-11.5918
eal	-11.5919
▁Except	-11.5919
▁peak	-11.592
▁wasnt	-11.592
wwww	-11.5921
▁Enough	-11.5921
▁english	-11.5922
▁pressed	-11.5922
nut	-11.5923
▁32	-11.5924
▁HOME	-11.5929
▁lashes	-11.5929
▁Own	-11.5934
hello	-11.5935
▁triple	-11.5935
ough	-11.5937
▁typical	-11.5937
True	-11.5944
STER	-11.5946
RL	-11.5946
▁marks	-11.5947
HB	-11.5947
▁confusing	-11.5949
▁understanding	-11.5951
▁remove	-11.5952
▁Dun	-11.5953
beer	-11.5957
▁Nathan	-11.5957
▁actions	-11.5957
▁panic	-11.5958
Dev	-11.5959
GuiltPromotion	-11.596
Messi	-11.5962
▁pla	-11.5964
asa	-11.5965
▁NASH	-11.5965
hem	-11.5968
▁Yesss	-11.597
▁NOBODY	-11.5971
space	-11.5971
CallMe	-11.5974
aid	-11.5975
fra	-11.5978
▁tae	-11.598
▁typo	-11.5982
▁regrann	-11.5982
people	-11.5984
Still	-11.5984
Paris	-11.5985
ATL	-11.5988
▁racing	-11.599
▁comfy	-11.5994
ih	-11.5996
▁$3	-11.5997
ail	-11.6
▁dragon	-11.6001
Sport	-11.6002
▁chris	-11.6006
▁Enjoying	-11.6006
MD	-11.601
Ci	-11.6012
▁lab	-11.6013
▁rolls	-11.6015
▁PH	-11.6017
Project	-11.6018
▁Van	-11.6018
▁Fashion	-11.602
▁liar	-11.6021
▁Kind	-11.6025
▁shadow	-11.6026
▁automatically	-11.6027
^	-11.6028
▁doors	-11.6029
Give	-11.603
▁bone	-11.6032
▁Angeles	-11.6032
▁SAY	-11.6034
▁votes	-11.6034
▁March	-11.6036
▁Touch	-11.6036
▁cinema	-11.6037
acc	-11.6038
Long	-11.6039
▁teachers	-11.6041
▁blocking	-11.6041
▁Lose	-11.6041
addict	-11.6041
▁Jimmy	-11.6042
▁Dam	-11.6043
wait	-11.6046
quotes	-11.6047
▁plot	-11.6053
▁fleek	-11.6054
▁Burger	-11.6055
lena	-11.6056
aime	-11.6059
shire	-11.6059
nas	-11.6059
wife	-11.606
▁READY	-11.6061
maya	-11.6062
ote	-11.6063
▁spin	-11.6064
hana	-11.6066
eel	-11.6067
sic	-11.6067
▁sw	-11.607
paper	-11.6073
gil	-11.6076
▁fwu	-11.6077
▁Trip	-11.6082
▁Whoever	-11.6082
▁49	-11.6082
Anna	-11.6083
▁PEOPLE	-11.6083
▁penalty	-11.6083
TheBachelorette	-11.6084
▁Ana	-11.6085
▁corny	-11.6086
asha	-11.6088
mail	-11.6088
▁Broke	-11.6092
▁belt	-11.6092
ل	-11.6094
▁Jim	-11.6095
▁insult	-11.6096
maker	-11.6098
▁PE	-11.61
▁tm	-11.6101
▁Lip	-11.6101
▁tend	-11.6104
Ste	-11.6106
cur	-11.6107
lau	-11.6107
▁panda	-11.6108
Col	-11.6109
bz	-11.611
▁gained	-11.6112
/10	-11.6114
anga	-11.6114
Support	-11.612
class	-11.6121
▁sur	-11.6122
prince	-11.6125
Shop	-11.6125
PP	-11.6126
▁awh	-11.6128
▁advantage	-11.6128
▁elementary	-11.6128
bloggers	-11.613
▁Wedding	-11.613
▁Splash	-11.6131
▁Cream	-11.6131
radio	-11.6131
rating	-11.6133
ija	-11.6134
▁KD	-11.6134
izing	-11.6135
bul	-11.6138
Ab	-11.6138
Kris	-11.6144
NIR	-11.6144
▁Johnny	-11.6146
foot	-11.6146
Dub	-11.6147
Xx	-11.6149
Steph	-11.6149
▁lovin	-11.6151
YearsWithBTS	-11.6151
▁granny	-11.6151
▁Lyft	-11.6151
vote	-11.6152
▁Shake	-11.6152
▁preview	-11.6152
▁reveal	-11.6152
▁Aint	-11.6156
Outlander	-11.6156
Model	-11.6157
kpop	-11.6157
101	-11.6163
Warriors	-11.6166
▁whoop	-11.6166
bull	-11.6167
▁doctors	-11.6167
ryl	-11.6168
▁7.	-11.617
▁realist	-11.6172
stic	-11.6175
his	-11.6176
brexit	-11.6177
▁gn	-11.6178
▁education	-11.6178
▁vision	-11.6178
ZA	-11.6179
jar	-11.6179
ttttt	-11.6181
▁bites	-11.6183
yne	-11.6184
▁watermelon	-11.6185
▁wreck	-11.6189
gym	-11.6189
▁jelly	-11.6189
ayy	-11.619
FO	-11.6191
▁Sleepy	-11.6192
▁Ter	-11.6193
lllll	-11.6193
▁thin	-11.6195
▁rainy	-11.6196
amour	-11.6197
▁Wassup	-11.6198
▁memes	-11.6199
▁popped	-11.6199
▁Random	-11.62
▁sales	-11.6201
▁wid	-11.6202
▁MADE	-11.6203
omi	-11.6204
▁FIRST	-11.6208
▁subject	-11.6208
▁punk	-11.621
Join	-11.6211
▁switched	-11.6214
▁misses	-11.6214
Moon	-11.6215
▁hol	-11.6216
Brave	-11.622
Ay	-11.6223
▁blown	-11.6225
Awards	-11.6226
shell	-11.6228
ith	-11.6228
▁inter	-11.623
stick	-11.623
▁Croatia	-11.6232
▁cramps	-11.6232
thi	-11.6234
▁wig	-11.6234
▁FR	-11.6237
▁ham	-11.6238
▁volleyball	-11.6238
▁Brooklyn	-11.6242
▁seasons	-11.6244
▁siblings	-11.6247
slay	-11.6248
▁tryin	-11.625
cio	-11.6253
Ky	-11.6256
▁cleaned	-11.6256
▁election	-11.6257
rik	-11.6259
etsy	-11.6259
Shan	-11.6261
▁Spent	-11.6261
▁announced	-11.6264
▁OMFG	-11.6266
lines	-11.6266
▁chain	-11.6266
▁shady	-11.6266
▁Return	-11.6268
▁nak	-11.6268
tah	-11.6268
HE	-11.6275
▁testing	-11.6276
Bu	-11.6277
▁paycheck	-11.6278
▁foundation	-11.628
▁bash	-11.628
Tell	-11.6283
Golden	-11.6285
roc	-11.6286
▁matching	-11.6288
ister	-11.6288
▁stealing	-11.629
▁deposit	-11.6293
▁ting	-11.6294
▁cell	-11.6294
▁stairs	-11.6297
92:	-11.6298
film	-11.6299
dani	-11.6301
INA	-11.6304
▁UTC	-11.6305
?#	-11.6305
▁Around	-11.6306
▁mill	-11.631
▁despite	-11.6311
▁guessing	-11.6311
▁stalking	-11.6314
nik	-11.6314
CL	-11.6315
▁holidays	-11.6316
aver	-11.6316
▁roses	-11.6318
▁CALL	-11.6319
arm	-11.6325
CR	-11.6325
movie	-11.6327
▁Toronto	-11.6328
woman	-11.6328
xox	-11.6329
▁naughty	-11.6329
NESS	-11.6333
▁GS	-11.6335
▁42	-11.6335
▁Cross	-11.6337
▁Fish	-11.6337
aria	-11.6338
bun	-11.6341
▁neighbor	-11.6346
▁Bella	-11.6347
▁photoshoot	-11.6347
pel	-11.6349
SB	-11.6349
▁favorites	-11.6351
ega	-11.6353
▁hy	-11.6355
▁Michelle	-11.6356
▁Spread	-11.6358
yon	-11.6361
▁angels	-11.6363
wat	-11.6366
xn	-11.637
SUI	-11.637
uda	-11.6371
▁baddie	-11.6373
giveaway	-11.6373
hold	-11.6374
▁Drive	-11.6374
rb	-11.6375
▁bedroom	-11.6375
cup	-11.6375
CI	-11.6376
▁LE	-11.6376
▁Lmaooo	-11.6376
GR	-11.6378
▁Thug	-11.6378
mama	-11.638
▁TICKETS	-11.6381
▁BOY	-11.6382
Bang	-11.6383
problems	-11.6391
▁Boris	-11.6395
onna	-11.6396
Hello	-11.6396
▁dunk	-11.6397
▁Ban	-11.6399
KK	-11.6399
zza	-11.6399
yoga	-11.6399
erson	-11.6401
▁Prom	-11.6401
nam	-11.6404
after	-11.6404
▁Barcelona	-11.6405
▁matches	-11.6405
▁Momma	-11.6406
▁beans	-11.6407
▁Rick	-11.6408
Gen	-11.6408
yer	-11.6409
▁LI	-11.641
wego	-11.6414
ife	-11.6416
▁£10	-11.6419
rrrrr	-11.6421
▁treatment	-11.6422
bbuk	-11.6423
▁Nicole	-11.6423
▁36	-11.6426
▁trans	-11.6427
▁entry	-11.6428
▁FACE	-11.6428
▁TOP	-11.6428
▁hooked	-11.6436
▁Colorado	-11.644
▁Square	-11.6441
OK	-11.6442
▁Chick	-11.6443
dai	-11.6443
hhhhhh	-11.6446
Gun	-11.6446
▁ray	-11.6446
funny	-11.6448
rance	-11.6449
▁8:30	-11.645
▁ahhh	-11.6451
▁softball	-11.6454
uga	-11.6454
▁netflix	-11.6455
onn	-11.6456
jai	-11.6456
▁BR	-11.6457
▁arrive	-11.6458
▁Chelsea	-11.6458
Jae	-11.6459
ATION	-11.6459
Mary	-11.646
▁Staying	-11.6461
▁Interesting	-11.6462
▁pump	-11.6463
▁Shower	-11.6465
ido	-11.6465
Shit	-11.6466
sar	-11.6469
Wood	-11.647
▁Bal	-11.647
▁individual	-11.6473
fie	-11.6476
healthy	-11.6479
challenge	-11.6479
brand	-11.6481
▁earn	-11.6482
▁Gift	-11.6482
▁phones	-11.6484
▁Kris	-11.6484
▁majority	-11.6487
▁Madrid	-11.6488
▁DONE	-11.6489
▁Mis	-11.6489
▁buzz	-11.6491
Diamond	-11.6491
/6	-11.6491
▁SOME	-11.6496
XX	-11.6496
Wal	-11.6497
▁witness	-11.65
▁RA	-11.65
▁silver	-11.65
▁Comment	-11.6502
nner	-11.6503
save	-11.6507
▁comic	-11.6509
riz	-11.6512
amazing	-11.6515
YE	-11.6515
screen	-11.6516
Kayla	-11.6517
▁Tweets	-11.6517
worth	-11.6519
▁sesh	-11.6519
▁soup	-11.6519
moo	-11.6521
LC	-11.6522
Allah	-11.6522
▁Bear	-11.6524
▁SU	-11.6524
▁Current	-11.6527
91:	-11.6528
▁bin	-11.6528
▁Joy	-11.653
▁fasho	-11.6531
▁belated	-11.6532
▁Graduation	-11.6533
▁beaut	-11.6533
▁levels	-11.6536
anny	-11.6537
▁Des	-11.6538
Fight	-11.6538
ments	-11.6539
▁tooth	-11.654
Women	-11.6545
EA	-11.6546
▁Used	-11.6546
▁demand	-11.6549
paige	-11.6551
▁shave	-11.6552
▁Film	-11.6553
store	-11.6553
Ski	-11.6554
▁Bought	-11.6556
▁Anton	-11.6557
▁suspended	-11.6558
▁kar	-11.656
REAL	-11.6561
kelly	-11.6561
Find	-11.6563
▁Thompson	-11.6564
▁Savage	-11.6564
▁yell	-11.6567
▁fold	-11.6568
▁options	-11.6568
▁cookout	-11.6572
brooke	-11.6573
▁Amy	-11.6576
▁pill	-11.6581
UFC	-11.6582
5.	-11.6583
▁Sale	-11.6584
HC	-11.6584
▁thinkin	-11.6584
▁Dope	-11.6585
aja	-11.6593
rice	-11.6593
▁Bel	-11.6594
▁Basketball	-11.6596
Kee	-11.6596
iaaa	-11.6599
▁Jin	-11.6599
ania	-11.6601
Cl	-11.6602
GuiltPremiere	-11.6603
udge	-11.6609
Blog	-11.661
EM	-11.6614
▁abuse	-11.6615
▁suggest	-11.6616
dat	-11.6616
▁kan	-11.6618
▁sheets	-11.6619
PrayFor	-11.6621
Glastonbury	-11.6622
▁ly	-11.6623
ander	-11.6624
▁naps	-11.6626
........	-11.6626
▁BABE	-11.6628
▁essay	-11.6628
▁Question	-11.6629
perfect	-11.6629
▁Pet	-11.6629
eta	-11.6631
▁zayn	-11.6633
▁charm	-11.6635
▁VS	-11.6638
inspiration	-11.6639
LESS	-11.6639
Morning	-11.6641
▁BS	-11.6641
▁lbs	-11.6642
▁somethin	-11.6645
▁humor	-11.6645
igan	-11.6647
▁excuses	-11.6647
Wi	-11.6647
▁Weird	-11.6649
Again	-11.665
tree	-11.665
▁£20	-11.6652
▁Tre	-11.6653
Fo	-11.6654
▁Fans	-11.6656
▁Bridge	-11.6656
▁Positive	-11.6657
▁hint	-11.6657
door	-11.666
▁KO	-11.6662
▁Matthew	-11.6662
▁finest	-11.6663
IF	-11.6665
▁Ohh	-11.6665
rad	-11.6665
lexi	-11.6665
hits	-11.6666
▁premiere	-11.6668
▁Evening	-11.6672
ines	-11.6675
▁Goal	-11.6675
▁suffer	-11.6675
yanna	-11.6676
▁TRUE	-11.6676
▁brat	-11.6681
▁Hip	-11.6683
sports	-11.6684
▁Though	-11.6687
▁flavor	-11.6688
▁tb	-11.6689
▁Travel	-11.6689
▁forced	-11.6691
▁replay	-11.6692
▁boyfriends	-11.6693
▁umm	-11.6693
rou	-11.6694
juice	-11.6695
Rip	-11.6698
▁Times	-11.6702
▁Market	-11.6704
Street	-11.6706
▁Doctor	-11.6709
▁Track	-11.6709
▁Jump	-11.6716
Jayy	-11.6718
▁Philly	-11.6725
chie	-11.6727
▁Shawty	-11.6728
Com	-11.6728
▁Credit	-11.6728
▁cy	-11.6732
▁Throw	-11.6733
▁hml	-11.6734
LFC	-11.6734
▁mas	-11.674
▁deck	-11.6741
fel	-11.6744
ability	-11.6744
▁Barnes	-11.6745
▁wan	-11.6745
▁passes	-11.6745
▁Elementary	-11.6746
▁reference	-11.6746
▁Indeed	-11.6747
rang	-11.6747
Ji	-11.675
ants	-11.6753
▁Hmu	-11.6754
faith	-11.6754
mack	-11.6755
Emily	-11.6755
▁chipotle	-11.6758
full	-11.676
▁ruining	-11.6761
▁makin	-11.6764
▁courage	-11.6765
Sta	-11.6765
▁EVEN	-11.6766
▁bracelet	-11.677
▁victory	-11.677
butt	-11.6772
Ent	-11.6774
booty	-11.6774
corn	-11.6776
Cap	-11.6776
FR	-11.6777
▁hr	-11.678
▁Hat	-11.6781
ego	-11.6783
▁Slow	-11.6784
ign	-11.6784
▁Trans	-11.6784
▁wana	-11.6785
ike	-11.6785
▁flirt	-11.6786
▁Ay	-11.6787
illian	-11.6792
▁LGBT	-11.6792
▁participate	-11.6794
Bella	-11.6795
▁featuring	-11.6795
harry	-11.6795
things	-11.6798
▁$250	-11.6799
heat	-11.68
Sony	-11.68
▁choices	-11.68
fur	-11.6802
arian	-11.6802
Simply	-11.6803
▁Lucy	-11.6805
▁tummy	-11.6807
lp	-11.6807
▁Nap	-11.6809
▁PSA	-11.6809
▁announcement	-11.6809
jasmine	-11.6811
▁38	-11.6812
ease	-11.6812
▁@2	-11.6813
rash	-11.6814
▁Fox	-11.6814
101:	-11.6815
▁gotcha	-11.6816
▁PART	-11.6817
▁Ep	-11.6818
▁sy	-11.6818
▁6/1	-11.6819
▁facial	-11.6819
▁Via	-11.6822
WW	-11.6822
▁embarrassed	-11.6823
Nor	-11.6828
issa	-11.6828
▁net	-11.6828
▁Nashville	-11.683
▁Ol	-11.6832
bow	-11.6832
▁kay	-11.6833
PC	-11.6834
peace	-11.6834
AI	-11.6837
▁Pu	-11.6837
shaa	-11.6837
▁intro	-11.6838
Pray	-11.6839
▁tennis	-11.6841
iana	-11.6842
CallMeSeb	-11.6843
▁logic	-11.6844
▁duty	-11.6847
▁reaching	-11.6849
cul	-11.6853
kkkk	-11.6855
▁Katie	-11.6855
▁Preciate	-11.6855
▁presence	-11.6855
gn	-11.6856
jayy	-11.6858
mai	-11.6863
▁collect	-11.6864
Jas	-11.6864
tim	-11.6864
▁Ber	-11.6865
ota	-11.6866
famous	-11.6866
▁del	-11.6868
81	-11.6869
▁Death	-11.6871
vibes	-11.6874
▁cuddles	-11.6874
▁mature	-11.6878
naa	-11.6879
▁drivers	-11.6879
▁phase	-11.688
kn	-11.688
▁Hehe	-11.6881
eller	-11.6881
BL	-11.6881
▁whi	-11.6882
▁billion	-11.6882
tattoo	-11.6883
rh	-11.6888
UG	-11.6888
▁cough	-11.6891
1039	-11.6892
▁temporary	-11.6894
ense	-11.6894
▁150	-11.6895
▁realizing	-11.6897
igo	-11.6897
▁lah	-11.6897
▁THATS	-11.69
err	-11.69
▁Cur	-11.69
▁mwa	-11.6905
▁Tee	-11.6905
MJ	-11.6906
▁cracking	-11.6907
rum	-11.6908
bug	-11.6914
Hand	-11.6914
▁rocks	-11.6915
▁salon	-11.6915
▁Insta	-11.6918
ude	-11.6918
▁gc	-11.6918
▁coworkers	-11.6919
▁YEAR	-11.6919
AZ	-11.6923
awn	-11.6923
▁Mal	-11.6923
Fat	-11.6924
▁Ahhh	-11.6924
▁SF	-11.6926
▁dj	-11.6928
edWhiteAndWasted	-11.6928
ogetherETERNALLY	-11.6928
▁previous	-11.6929
▁Peep	-11.6929
OB	-11.693
▁crab	-11.6932
▁pasta	-11.6933
ssssss	-11.6934
rag	-11.6935
▁pepper	-11.6936
Max	-11.6938
▁Into	-11.6939
34:	-11.694
Hill	-11.694
dest	-11.6941
Johnson	-11.6941
Bear	-11.6944
zon	-11.6945
dark	-11.6947
▁searching	-11.695
▁pleased	-11.6951
▁EVERYBODY	-11.6953
▁wrist	-11.6953
amy	-11.6954
Los	-11.6954
Ant	-11.6956
▁buzzing	-11.6959
chen	-11.6959
GI	-11.6965
▁DOWN	-11.6969
Shay	-11.6969
TD	-11.6971
▁Jeff	-11.6972
front	-11.6973
WeAre	-11.6974
▁MC	-11.6975
anni	-11.6977
kka	-11.6982
▁tits	-11.6983
▁magazine	-11.6985
Thursday	-11.6986
▁delay	-11.6986
rx	-11.6986
▁THESE	-11.6986
gle	-11.6987
▁Mann	-11.699
▁pages	-11.6993
▁Ft	-11.6994
▁Hang	-11.6995
▁sets	-11.6995
Nat	-11.6995
nnie	-11.6996
▁Rey	-11.6997
SK	-11.6999
▁spoken	-11.7001
rachel	-11.7001
paris	-11.7002
Ever	-11.7002
gmail	-11.7004
WWDC	-11.7004
lion	-11.701
▁Speak	-11.701
▁ako	-11.7013
▁necklace	-11.7013
▁frustrating	-11.7014
▁Sy	-11.7014
▁influence	-11.7016
IAN	-11.7018
ttle	-11.702
callme	-11.702
▁WA	-11.7021
▁booth	-11.7022
JB	-11.7025
▁Through	-11.7026
▁types	-11.7026
▁wack	-11.7027
BER	-11.7027
EX	-11.7028
CON	-11.7029
▁dedicated	-11.7032
▁Stadium	-11.7032
Mia	-11.7033
nai	-11.7033
▁»	-11.7035
vas	-11.7037
▁peach	-11.7037
▁Model	-11.7038
▁Bouta	-11.7038
wow	-11.704
▁yung	-11.7041
▁mah	-11.7041
ien	-11.7041
aaaaaaa	-11.7044
_1	-11.7046
IES	-11.7046
bf	-11.7046
▁curl	-11.7047
▁Amber	-11.7049
rac	-11.705
kris	-11.7051
Juice	-11.7051
▁ratchet	-11.7051
CHI	-11.7052
▁whatsapp	-11.7052
▁Shopping	-11.7052
CSGO	-11.7053
ndi	-11.7056
path	-11.7059
▁sweating	-11.7059
▁Pri	-11.706
AhoraSuena	-11.7064
▁several	-11.7064
▁skate	-11.7064
▁library	-11.7064
leen	-11.7064
▁Arm	-11.7066
▁Four	-11.7069
▁scores	-11.707
sher	-11.707
▁CL	-11.7073
▁discovered	-11.7074
▁THO	-11.7074
▁exercise	-11.7075
▁panties	-11.7077
think	-11.7081
▁mindset	-11.7082
▁venue	-11.7086
Perfect	-11.7088
▁FUN	-11.7089
YO	-11.709
▁tr	-11.7091
▁display	-11.7091
▁Grace	-11.7092
▁countdown	-11.7092
load	-11.7093
After	-11.7094
isse	-11.7095
SD	-11.7095
▁equal	-11.7097
Updates	-11.7097
▁Shoot	-11.7098
▁useless	-11.7099
▁-&	-11.71
dem	-11.71
▁melt	-11.7101
▁Northern	-11.7102
ENGICE	-11.7102
▁muscle	-11.7102
Dog	-11.7102
yeol	-11.7103
Au	-11.7105
▁madness	-11.7106
laaa	-11.7107
▁polish	-11.7108
▁Demi	-11.7108
▁dorm	-11.7108
Tweets	-11.7109
▁Virginia	-11.7109
▁es	-11.711
cay	-11.711
▁Fucked	-11.7111
▁ken	-11.7112
dead	-11.7113
cover	-11.7113
▁illegal	-11.7114
▁idek	-11.7115
▁FAV	-11.7116
▁Inter	-11.7118
▁10%	-11.7119
▁bullet	-11.7119
▁satisfied	-11.712
▁recovery	-11.712
Check	-11.712
▁ob	-11.7121
▁endless	-11.7122
ending	-11.7126
▁Child	-11.7127
nova	-11.7129
▁horny	-11.7132
▁Winter	-11.7132
▁tatted	-11.7133
PT	-11.7135
▁swag	-11.7135
▁convince	-11.7135
▁inner	-11.7136
Fin	-11.7136
Welcome	-11.7138
▁brick	-11.714
▁Beer	-11.7144
ded	-11.715
▁Arizona	-11.7154
▁Wanted	-11.7155
Some	-11.7157
Mrs	-11.7162
thin	-11.7164
Yeah	-11.7166
▁idiots	-11.7166
End	-11.7169
▁Chan	-11.7171
Wales	-11.7174
89:	-11.7175
▁Cousin	-11.7176
▁gram	-11.7176
▁gen	-11.7176
▁terms	-11.7177
▁Cal	-11.7177
kira	-11.718
Turn	-11.7181
▁Cos	-11.7188
▁Driving	-11.7189
garcia	-11.7189
▁serving	-11.7189
support	-11.719
imo	-11.7193
wit	-11.7193
▁safety	-11.7197
FE	-11.7203
▁weirdo	-11.7203
▁£5	-11.7203
▁CR	-11.7203
▁addiction	-11.7204
▁paw	-11.7205
Luv	-11.7205
cross	-11.7209
▁Alan	-11.7211
▁ohhh	-11.7212
Cee	-11.7212
hut	-11.7214
ISH	-11.7215
▁smashed	-11.7217
joe	-11.7217
▁physically	-11.7218
eric	-11.7218
▁upgrade	-11.7223
AAAA	-11.7224
▁Um	-11.7224
jada	-11.7227
cus	-11.7229
maine	-11.723
▁Truly	-11.723
Feel	-11.7232
Ph	-11.7232
▁greatness	-11.7232
Better	-11.7233
--&	-11.7233
▁Diamond	-11.7233
▁unexpected	-11.7234
▁unfollowed	-11.7235
Lit	-11.7237
▁supportive	-11.7237
▁HD	-11.724
ably	-11.7241
Pen	-11.7242
pray	-11.7243
North	-11.7244
▁rescue	-11.7245
adore	-11.725
Two	-11.725
Boys	-11.725
michael	-11.7251
▁Cry	-11.7251
bridge	-11.7251
iza	-11.7252
AU	-11.7254
ridge	-11.7257
▁loo	-11.7258
▁windows	-11.7258
met	-11.726
▁fitness	-11.7263
▁MP	-11.7264
▁diamond	-11.7267
▁History	-11.7271
bob	-11.7272
ayo	-11.728
▁junk	-11.7281
▁landed	-11.7281
zel	-11.7282
jc	-11.7282
ysure	-11.7283
yx	-11.7283
mother	-11.7285
mission	-11.7286
Part	-11.7286
▁nite	-11.7288
▁Elizabeth	-11.7289
▁google	-11.729
▁LINK	-11.7291
▁Ram	-11.7291
ACK	-11.7292
kr	-11.7294
tric	-11.7295
44:	-11.7295
▁Ann	-11.7296
▁youuuuu	-11.7299
▁TA	-11.7299
▁patiently	-11.7301
▁Kingdom	-11.7307
IGHT	-11.7308
Gal	-11.7308
▁Ac	-11.731
Beach	-11.7312
vel	-11.7313
code	-11.7313
dell	-11.7314
▁Kai	-11.7314
RED	-11.7314
Alexis	-11.7314
▁existence	-11.7316
OH	-11.7316
▁returns	-11.7316
lind	-11.7317
rm	-11.7319
▁pour	-11.7319
Old	-11.7319
▁begging	-11.732
Birthday	-11.732
mum	-11.732
▁unnie	-11.7321
Aye	-11.7324
▁Discover	-11.7325
Dar	-11.7325
yla	-11.7328
uckHeadLoftParty	-11.7328
uke	-11.7328
▁1-0	-11.7329
▁justice	-11.7332
Blessed	-11.7334
eck	-11.7336
▁33	-11.7337
▁Ooh	-11.7338
▁wyd	-11.7338
▁nurse	-11.7341
▁Giving	-11.7341
▁OKAY	-11.7342
▁rob	-11.7344
vu	-11.7346
Cla	-11.7346
wd	-11.7347
▁Ari	-11.7348
▁float	-11.7348
▁WHERE	-11.7351
iga	-11.7353
▁vet	-11.7353
▁Kings	-11.7353
▁independent	-11.7354
▁WANNA	-11.7354
▁Unless	-11.7357
sters	-11.7358
yle	-11.7361
▁editing	-11.7363
LGBT	-11.7366
▁nonsense	-11.7366
▁Court	-11.7367
BET	-11.7368
standard	-11.7368
EDC	-11.7369
ards	-11.7373
ouch	-11.7374
Amber	-11.7374
▁Gomez	-11.7376
▁Ugly	-11.7376
OFC	-11.7378
▁transfer	-11.7379
▁Omfg	-11.7379
better	-11.738
Jesus	-11.7381
▁yan	-11.7383
LD	-11.7384
youtube	-11.7385
▁society	-11.7386
BH	-11.7387
cris	-11.7388
chee	-11.7389
▁rides	-11.7391
stock	-11.7393
cloud	-11.7397
hang	-11.74
BG	-11.7402
▁halfway	-11.7403
▁screwed	-11.7404
KCAMexico	-11.7405
lane	-11.7405
▁Count	-11.7407
Land	-11.7409
FollowMe	-11.741
Kill	-11.7411
▁MAR	-11.7411
▁nooo	-11.7411
▁shoulders	-11.7412
cx	-11.7413
▁uk	-11.7414
eeeeeee	-11.7415
▁TWERK	-11.7418
▁alligator	-11.7418
▁gossip	-11.7418
▁bl	-11.7419
SHA	-11.742
▁refs	-11.742
▁flop	-11.7422
▁Naw	-11.7423
_1:	-11.7424
▁Bobby	-11.7424
▁offended	-11.7426
tweets	-11.7427
▁MV	-11.7429
State	-11.743
▁nicest	-11.7431
Glasto	-11.7433
dding	-11.7433
▁passport	-11.7433
▁trainer	-11.7433
EDM	-11.7436
david	-11.7436
jee	-11.7438
leah	-11.7439
▁milkshake	-11.7444
▁compete	-11.7444
Mor	-11.7447
Ze	-11.7449
____	-11.7451
▁TWEET	-11.7454
▁cops	-11.7456
JUNGKOOK	-11.7456
▁$100	-11.7461
fox	-11.7462
▁Boom	-11.7463
arra	-11.7465
dg	-11.7466
▁closest	-11.7467
▁kitten	-11.7467
▁2016.	-11.7468
soon	-11.7469
▁MORNING	-11.7469
▁purse	-11.7471
▁champion	-11.7471
IRE	-11.7473
Qui	-11.7474
▁55	-11.7474
▁folk	-11.7477
▁discover	-11.7477
▁rockin	-11.7478
gf	-11.7478
ups	-11.7478
poo	-11.748
mood	-11.7481
£	-11.7483
▁tre	-11.7484
soccer	-11.7485
▁concern	-11.7485
Jessica	-11.7486
▁TWO	-11.7487
▁Spa	-11.7488
sil	-11.7489
handmade	-11.749
▁scoop	-11.749
page	-11.7491
▁PRO	-11.7492
▁pisses	-11.7492
▁Chat	-11.7492
▁Olivia	-11.7493
▁Tina	-11.7495
▁Anatomy	-11.7495
▁MEAN	-11.7495
▁yikes	-11.7495
johnson	-11.7496
▁angle	-11.75
adam	-11.75
sick	-11.7501
Stan	-11.7502
▁Hodgson	-11.7504
Sir	-11.7504
Fox	-11.7506
▁Celebrating	-11.7508
▁Although	-11.7508
▁MU	-11.7508
▁frustrated	-11.751
again	-11.7511
?????	-11.7514
okay	-11.7516
bout	-11.7517
▁BL	-11.7522
▁overall	-11.7522
haha	-11.7523
▁luh	-11.7525
▁naturally	-11.7526
▁pero	-11.7529
wen	-11.7531
▁Santa	-11.7534
▁coat	-11.7534
rine	-11.7535
▁Flag	-11.7535
▁ripped	-11.7536
Lord	-11.754
mula	-11.7542
▁donut	-11.7542
▁sew	-11.7542
▁orders	-11.7542
NN	-11.7543
▁eve	-11.7545
East	-11.7545
▁lovers	-11.7545
▁mobile	-11.7547
clo	-11.7547
▁OPEN	-11.7548
MuseumBar	-11.7549
KI	-11.7552
▁joe	-11.7553
▁TEAM	-11.7554
▁Sadly	-11.7555
▁400	-11.7555
ced	-11.7556
renee	-11.7558
bil	-11.7558
▁chemistry	-11.7559
wave	-11.7559
▁Wave	-11.7559
▁Makeup	-11.756
▁mam	-11.756
ndler	-11.7561
▁News	-11.7561
Today	-11.7564
▁wipe	-11.7568
oke	-11.7568
isi	-11.7568
snap	-11.7569
▁Canadian	-11.7569
▁rly	-11.7571
▁SAVE	-11.7572
▁Sur	-11.7572
AmeATL	-11.7573
▁invest	-11.7575
rro	-11.7576
Tony	-11.7576
OF	-11.7579
▁Spending	-11.7581
BD	-11.7581
lift	-11.7583
▁virgin	-11.7583
Lex	-11.7583
▁burned	-11.7584
▁OPERA	-11.7586
ATED	-11.7588
▁combo	-11.7588
magic	-11.7588
pol	-11.7589
▁Ohhh	-11.7589
kam	-11.7589
doo	-11.7592
ITE	-11.7598
JO	-11.7599
▁decides	-11.7599
blo	-11.7599
▁.#	-11.76
chloe	-11.76
twitch	-11.76
▁laws	-11.7601
▁Kayla	-11.7604
pee	-11.7607
▁sk	-11.7608
▁confirmed	-11.7609
▁chap	-11.761
▁designer	-11.7611
▁stores	-11.7612
▁Carl	-11.7616
sho	-11.7617
▁Championship	-11.7618
Was	-11.7619
▁bre	-11.7621
bea	-11.7624
▁BDAY	-11.7625
GoT	-11.7625
▁workouts	-11.7626
▁Purple	-11.7628
▁20%	-11.7628
▁fback	-11.7632
▁ACT	-11.7636
▁sends	-11.7638
MMA	-11.764
mf	-11.7641
▁shaking	-11.7642
South	-11.7643
▁hoo	-11.7643
▁hottie	-11.7643
Town	-11.7644
eek	-11.7646
▁SLAY	-11.7647
island	-11.7649
IST	-11.7649
honey	-11.765
▁debating	-11.7652
court	-11.7652
▁Box	-11.7655
▁xxxx	-11.7655
▁GAIN	-11.7656
▁Dutch	-11.7656
sOf	-11.7657
▁Cancer	-11.7658
azz	-11.7658
LU	-11.766
nj	-11.7661
▁Tory	-11.7661
ule	-11.7663
▁apps	-11.7663
▁completed	-11.7664
▁garbage	-11.7665
▁negativity	-11.7665
Morgan	-11.7667
▁theatre	-11.7669
Istanbul	-11.767
Even	-11.7671
slim	-11.7672
▁Junior	-11.7672
▁Anytime	-11.7672
TON	-11.7672
gus	-11.7672
drop	-11.7672
▁cloud	-11.7672
▁BOO	-11.7673
▁include	-11.7674
▁lesbian	-11.7675
▁Sand	-11.7675
IX	-11.7675
▁tin	-11.7675
▁cheeky	-11.7678
LHHATL	-11.7678
dian	-11.768
▁discussion	-11.768
dha	-11.7681
▁sucked	-11.7682
FOOW	-11.7683
hawk	-11.7684
III	-11.769
▁GB	-11.769
▁Stunning	-11.7692
▁defend	-11.7693
dv	-11.7694
▁BLACK	-11.7697
ically	-11.7697
▁BRO	-11.77
▁earned	-11.7703
tyler	-11.7704
hou	-11.7705
▁NI	-11.7712
▁prime	-11.7717
Austin	-11.7717
▁prettiest	-11.7718
eme	-11.7719
▁AJ	-11.7719
▁feedback	-11.772
Yu	-11.7723
cking	-11.7724
600	-11.7726
Cash	-11.7727
Martin	-11.7728
▁pattern	-11.7731
block	-11.7734
▁banger	-11.7736
bd	-11.7736
▁hunt	-11.7737
▁Gosh	-11.7739
source	-11.7739
▁RM	-11.774
lick	-11.7741
▁museum	-11.7742
▁Saying	-11.7743
health	-11.7747
ART	-11.7747
▁Zoo	-11.7747
▁affect	-11.7749
▁bihh	-11.775
ITS	-11.7752
▁Blog	-11.7753
▁Calling	-11.7754
▁ci	-11.7755
▁HARD	-11.776
▁arse	-11.7765
▁Heat	-11.7766
▁mates	-11.7766
▁according	-11.7766
bing	-11.7767
▁gimme	-11.7771
ony	-11.7774
▁sus	-11.7775
festival	-11.7776
▁appear	-11.7778
▁considered	-11.7778
graph	-11.7779
▁$300	-11.7779
DD	-11.7779
ieee	-11.778
▁ste	-11.7781
▁LISTEN	-11.7783
Face	-11.7784
))	-11.7785
unofficial	-11.7786
▁quotes	-11.7787
ITY	-11.7787
Every	-11.7788
▁Rule	-11.7788
TX	-11.7789
▁NEXT	-11.7791
▁Hear	-11.7793
▁Tattoo	-11.7793
oi	-11.7794
fine	-11.7794
Artist	-11.7795
▁hosting	-11.7797
plan	-11.7798
nies	-11.7799
▁Th	-11.7802
phil	-11.7802
▁bla	-11.7807
wind	-11.7809
▁Sch	-11.781
iggy	-11.781
scar	-11.781
▁Stu	-11.7811
▁volunteer	-11.7816
lands	-11.7817
Cause	-11.7818
NES	-11.7819
▁achieve	-11.7821
▁Field	-11.7821
bah	-11.7822
▁stubborn	-11.7825
▁unbelievable	-11.7825
▁frozen	-11.7826
▁blanket	-11.7827
Racing	-11.7827
▁backwards	-11.7829
ellie	-11.7834
▁speaks	-11.7835
▁peek	-11.7835
▁wished	-11.7836
▁therapy	-11.7837
▁Drew	-11.7838
▁broadcast	-11.7839
▁brew	-11.784
sydney	-11.784
▁Mari	-11.7841
comics	-11.7844
TL	-11.7844
▁laughs	-11.7844
gua	-11.7849
▁french	-11.7849
▁featured	-11.785
▁Cheer	-11.7852
▁4:30	-11.7852
▁Hop	-11.7854
▁Hy	-11.7856
zee	-11.7856
▁glitter	-11.7857
▁spark	-11.7858
Pu	-11.7858
▁clap	-11.7861
kitty	-11.7863
▁compliments	-11.7864
EthanDolan	-11.7865
▁puppies	-11.7865
▁FORGET	-11.7865
▁items	-11.7866
▁sumn	-11.7866
▁BIKINI	-11.7867
stream	-11.7868
ular	-11.7869
TRA	-11.7873
▁letters	-11.7876
▁noodles	-11.7877
theylove	-11.7877
▁deleting	-11.7878
▁GONNA	-11.7879
▁aight	-11.788
stra	-11.788
Friends	-11.788
Chill	-11.788
▁instantly	-11.7881
▁Relationship	-11.7883
RUS	-11.7883
STAR	-11.7883
▁josh	-11.7884
ف	-11.7885
▁Reason	-11.7885
megan	-11.7886
yrs	-11.7886
▁hacked	-11.7888
gb	-11.7889
▁scratch	-11.7891
meet	-11.7891
▁Accurate	-11.7892
▁Baltimore	-11.7893
bean	-11.7894
▁Nat	-11.7894
kra	-11.7895
▁£200	-11.7895
Must	-11.7896
▁Nash	-11.7897
▁laughter	-11.7901
ZZ	-11.7904
▁Trap	-11.7905
▁stoked	-11.7905
France	-11.7905
SJ	-11.7912
▁Store	-11.7912
Ham	-11.7914
▁SHA	-11.7916
▁Rd	-11.7916
oda	-11.7917
▁Para	-11.7917
▁grocery	-11.7919
andra	-11.7921
▁limited	-11.7922
job	-11.7924
Asia	-11.7925
ush	-11.7925
lik	-11.7925
▁han	-11.7927
▁dust	-11.7927
▁kim	-11.7929
fully	-11.793
▁grave	-11.7933
feel	-11.7937
▁Americans	-11.794
oto	-11.7941
gas	-11.7943
▁KEEP	-11.7946
▁reg	-11.7949
▁aside	-11.7949
▁tra	-11.7949
▁Nicki	-11.795
▁dishes	-11.795
▁cuff	-11.795
onthe	-11.7951
▁bugs	-11.7956
▁Sunset	-11.7956
▁Neva	-11.7958
ALDUBTransition	-11.7959
zzzz	-11.7962
bia	-11.7962
▁spotted	-11.7964
Care	-11.7965
WI	-11.7965
storm	-11.7966
zayn	-11.797
gel	-11.7971
▁EXCITED	-11.7973
▁Bag	-11.7974
▁suffering	-11.7974
▁%	-11.7976
▁Smart	-11.7978
▁fin	-11.7979
▁hv	-11.798
▁Ton	-11.798
TED	-11.798
▁concerned	-11.7984
addy	-11.7985
▁ASK	-11.7985
RETWEET	-11.7986
Eye	-11.7991
▁Ny	-11.7991
▁Stress	-11.7994
▁hoodie	-11.7994
▁esp	-11.7994
▁Petty	-11.7995
ched	-11.7997
▁Ashton	-11.7997
▁shown	-11.7998
▁Stark	-11.7999
MTVMiaw	-11.8
▁highlights	-11.8
▁username	-11.8
onnie	-11.8003
cla	-11.8005
ces	-11.8005
▁sassy	-11.8007
▁plant	-11.8007
.99	-11.8007
▁Album	-11.8008
bol	-11.8008
▁NOTHING	-11.8014
▁10:30	-11.8014
wel	-11.8015
▁cakes	-11.8017
▁confirm	-11.8017
▁features	-11.8017
▁celebrations	-11.8018
▁Joey	-11.8018
Skin	-11.8019
▁lighting	-11.8022
TIC	-11.8022
▁screenshots	-11.8024
hari	-11.8025
matic	-11.8026
▁Stuck	-11.8026
▁tick	-11.8027
▁lightskin	-11.8027
▁JA	-11.8027
▁stadium	-11.8028
▁Drunk	-11.8028
▁mercy	-11.8028
▁legendary	-11.8029
UC	-11.803
tori	-11.803
▁nuggets	-11.8031
nger	-11.8031
cycle	-11.8031
andrea	-11.8033
lei	-11.8035
▁leading	-11.8035
▁hats	-11.8035
Mix	-11.8035
JD	-11.8039
▁Puerto	-11.8041
▁NWSSevereTstorm	-11.8041
bank	-11.8043
▁underwear	-11.8044
Pri	-11.8045
▁subtweet	-11.8046
▁label	-11.8046
kayy	-11.8049
▁temp	-11.8051
▁mud	-11.8054
▁talaga	-11.8055
▁FOREVER	-11.8055
▁Studio	-11.8058
▁kissed	-11.8058
YY	-11.8059
fathersday	-11.8059
IO	-11.806
gina	-11.8061
▁drives	-11.8062
cash	-11.8063
cosplay	-11.8067
▁glory	-11.8068
FifthHarmony	-11.8069
Count	-11.8069
▁ikr	-11.8069
777	-11.8071
Beat	-11.8071
vision	-11.8074
icle	-11.8075
▁condo	-11.8077
evo	-11.8081
oooooooo	-11.8082
mae	-11.8085
▁List	-11.8085
train	-11.8086
▁cu	-11.8086
▁Usher	-11.8087
▁Fuckin	-11.8089
▁snapchats	-11.8092
▁TELL	-11.8095
bill	-11.8097
▁Amsterdam	-11.8099
▁lace	-11.8099
onia	-11.81
▁destroy	-11.81
HAN	-11.8102
▁isnt	-11.8102
▁spelling	-11.8103
▁souls	-11.8106
▁Pain	-11.8107
uge	-11.8108
100:	-11.811
▁spicy	-11.811
▁Lou	-11.811
▁Legit	-11.8111
Wo	-11.8112
▁105	-11.8112
▁YAY	-11.8116
itty	-11.8118
ius	-11.8123
▁PERFECT	-11.8124
▁Meanwhile	-11.8124
▁NIGHTCLUB	-11.8124
Hannah	-11.8124
▁Gun	-11.8126
▁tele	-11.8126
ZE	-11.813
ark	-11.813
cook	-11.8132
▁37	-11.8133
▁louder	-11.8137
▁cringe	-11.814
oop	-11.8141
maa	-11.8142
▁Korea	-11.8143
main	-11.8143
▁Boyfriend	-11.8144
dre	-11.8145
motivation	-11.8146
nci	-11.8147
▁Bud	-11.8147
oops	-11.8148
▁dork	-11.8148
▁MJ	-11.8151
▁Cox	-11.8151
▁Jennifer	-11.8151
▁bodies	-11.8152
brook	-11.8153
▁Pin	-11.8154
nda	-11.8158
▁Mario	-11.8158
rious	-11.816
trill	-11.8161
▁Space	-11.8161
Bon	-11.8162
verse	-11.8163
▁emails	-11.8166
▁.@	-11.817
▁chef	-11.8172
lx	-11.8172
▁arrange	-11.8176
Joy	-11.8178
▁FDB	-11.818
Laura	-11.8181
▁Walker	-11.8182
ales	-11.8185
▁hahahah	-11.8186
ppp	-11.819
gifs	-11.8192
▁recall	-11.8192
▁Japanese	-11.8193
▁BETTER	-11.8194
Roll	-11.8195
▁HUGE	-11.8199
▁seven	-11.8199
.00	-11.82
▁Mill	-11.8201
▁Movies	-11.8204
▁delayed	-11.8204
▁Alexis	-11.8205
▁scrub	-11.8207
LINE	-11.8209
▁san	-11.8209
ave	-11.8212
inc	-11.8214
YS	-11.8214
▁Union	-11.8217
▁Dylan	-11.8218
▁THINK	-11.8221
▁Happiest	-11.8221
▁bandwagon	-11.8221
▁Design	-11.8222
lana	-11.8225
▁Different	-11.8225
▁aesthetic	-11.8225
▁Ob	-11.8228
Lay	-11.823
3)	-11.823
anu	-11.8231
mmmm	-11.8233
lene	-11.8234
▁Ron	-11.8235
▁Ringtone	-11.8235
Ry	-11.8235
▁Museum	-11.8236
jer	-11.8238
▁burgers	-11.824
▁pineapple	-11.824
XXX	-11.824
Apple	-11.824
▁Hol	-11.8242
loveislove	-11.8243
▁baked	-11.8243
▁vodka	-11.8245
▁0.0	-11.8248
▁ADN	-11.825
tb	-11.8253
▁Battle	-11.8255
▁hairstyle	-11.8255
▁JO	-11.8256
CS	-11.8256
Sound	-11.8258
saturday	-11.8259
School	-11.8259
▁cla	-11.8261
Kai	-11.8262
▁understands	-11.8262
▁fallen	-11.8263
LES	-11.8265
mean	-11.8266
▁Stick	-11.8267
tum	-11.8267
▁groups	-11.8267
Bal	-11.827
▁Dirty	-11.8272
▁strike	-11.8273
Help	-11.8273
Canada	-11.8273
eed	-11.8276
▁motivated	-11.8277
▁assignment	-11.828
MITB	-11.828
Fav	-11.8282
▁lineup	-11.8283
▁perf	-11.8284
▁carpet	-11.8285
Arsenal	-11.8287
Goddess	-11.8287
▁lmaoooo	-11.8287
▁coworker	-11.8288
▁Nvm	-11.8291
▁#7	-11.8295
▁bass	-11.8296
▁actress	-11.8298
nb	-11.8298
TION	-11.8301
kick	-11.8302
Auto	-11.8302
▁34	-11.8302
seok	-11.8304
▁trophy	-11.8305
▁worthy	-11.8305
▁soundtrack	-11.8305
▁scroll	-11.8306
▁Dragon	-11.8307
cade	-11.8309
▁hiring	-11.8309
Rain	-11.8311
bum	-11.8313
▁breathing	-11.8314
kon	-11.8317
▁offered	-11.8319
▁hotter	-11.8319
▁Bonus	-11.8321
▁cheek	-11.8322
▁snapped	-11.8324
Char	-11.8325
▁pr	-11.8326
▁buck	-11.8326
▁alien	-11.8327
fab	-11.8332
Phil	-11.8334
▁lighter	-11.8335
▁Grandma	-11.8339
▁soldier	-11.8339
oak	-11.8341
▁dressing	-11.8341
two	-11.8349
▁yelled	-11.8359
Major	-11.8359
most	-11.8359
rita	-11.836
dela	-11.8363
35:	-11.8365
mph	-11.8366
▁drum	-11.8366
▁Sammy	-11.8366
▁Lot	-11.8367
much	-11.8368
▁CD	-11.8368
inson	-11.8372
Emma	-11.8373
quote	-11.8373
ume	-11.8374
father	-11.8374
▁Excellent	-11.8375
SRK	-11.8376
▁Picture	-11.8376
going	-11.8376
▁toooo	-11.8376
▁Fix	-11.8377
Trap	-11.8377
ath	-11.8378
▁SUPER	-11.838
▁coverage	-11.8381
▁normally	-11.8382
▁thrown	-11.8382
▁Temp	-11.8384
▁Ring	-11.8384
▁hockey	-11.8385
▁mountain	-11.8385
▁tops	-11.8389
zia	-11.8392
▁Cheese	-11.8393
▁sour	-11.8394
ayyy	-11.8394
▁facetime	-11.8395
▁potatoes	-11.8395
yard	-11.8396
▁Watched	-11.8397
▁audio	-11.8397
▁payday	-11.8397
▁ofc	-11.8398
▁edits	-11.8398
▁Com	-11.8398
folk	-11.8401
▁Orleans	-11.8404
Ari	-11.8406
ador	-11.8407
Stu	-11.8407
Jade	-11.8407
▁psycho	-11.8408
▁Message	-11.841
▁JB	-11.841
▁tracks	-11.841
clean	-11.8411
▁define	-11.8411
project	-11.8415
▁cuties	-11.8418
ete	-11.8418
▁Godbless	-11.8419
▁}	-11.842
SSSS	-11.842
▁mvp	-11.8421
▁Keeping	-11.8424
nim	-11.8425
END	-11.8426
done	-11.8426
▁allergic	-11.8432
▁Choose	-11.8432
▁ny	-11.8435
▁gum	-11.8435
▁Bey	-11.8437
▁Ven	-11.8437
▁however	-11.8438
papi	-11.8438
ech	-11.8439
▁expose	-11.8439
▁Queens	-11.8439
ece	-11.844
kal	-11.8442
oka	-11.8442
pay	-11.8443
goddess	-11.8444
▁burrito	-11.8446
▁Wolf	-11.8448
▁daddies	-11.845
▁explore	-11.8451
▁accomplished	-11.8453
▁Sit	-11.8454
▁cuter	-11.8456
▁sta	-11.8458
OUT	-11.846
▁nicely	-11.8461
ounce	-11.8461
▁YEAH	-11.8461
▁achievement	-11.8462
wcw	-11.8463
!!!!!!!!!	-11.8464
thomas	-11.8464
GM	-11.8464
deal	-11.8467
bh	-11.8468
yong	-11.8468
▁ANY	-11.8468
▁films	-11.8473
Chicago	-11.8473
▁Unfortunately	-11.8475
▁revenge	-11.8475
▁Answer	-11.8475
▁cafe	-11.8476
▁cheesecake	-11.8476
▁Pack	-11.8476
▁Train	-11.8476
▁sneaky	-11.8477
rog	-11.8477
5%	-11.8478
_23:	-11.8479
▁whale	-11.8481
▁afterwards	-11.8481
grad	-11.8482
▁bible	-11.8482
▁notification	-11.8483
999	-11.8484
▁liars	-11.8487
▁75	-11.8487
simply	-11.8487
Read	-11.8489
Gri	-11.8489
▁dah	-11.8489
▁Valley	-11.8491
arts	-11.8495
▁stud	-11.8497
MSG	-11.8497
▁situations	-11.8497
▁weakness	-11.8498
BT	-11.8498
Ku	-11.8499
▁Islam	-11.8499
Legend	-11.8501
studio	-11.8502
living	-11.8503
mid	-11.8503
▁exchange	-11.8505
pear	-11.8505
Ol	-11.8506
5-60	-11.8506
▁skirt	-11.8507
▁inlove	-11.8507
▁ova	-11.8509
▁inches	-11.8509
2017	-11.8511
▁walls	-11.8513
▁Olympic	-11.8513
foodie	-11.8514
▁William	-11.8515
▁spill	-11.8516
illo	-11.8517
KY	-11.8518
deep	-11.8519
▁subway	-11.852
nii	-11.8521
Code	-11.8525
sign	-11.8526
plus	-11.8527
▁sessions	-11.8528
▁rooting	-11.8529
▁audition	-11.8532
▁Warm	-11.8533
idk	-11.8534
larry	-11.8536
▁noon	-11.8537
▁MUST	-11.854
josh	-11.8541
▁LOT	-11.8542
▁vocals	-11.8543
bou	-11.8543
Boi	-11.8545
dreams	-11.8546
▁steady	-11.8547
▁celebrity	-11.8549
army	-11.8551
▁mosquito	-11.8551
sw	-11.8552
▁Yellow	-11.8554
▁realest	-11.8555
cry	-11.8556
▁fml	-11.8557
VO	-11.8558
Disney	-11.8559
today	-11.8559
_4	-11.8559
Double	-11.856
▁depend	-11.856
▁FULL	-11.8563
▁included	-11.8564
hae	-11.8564
aal	-11.8565
▁exposed	-11.8569
vintage	-11.8574
▁Marcus	-11.8574
Iceland	-11.8575
▁explains	-11.8575
baek	-11.8576
▁43	-11.8576
lap	-11.8577
▁Behind	-11.8578
aze	-11.8583
Sale	-11.8583
Us	-11.8584
aging	-11.8585
▁har	-11.859
luke	-11.859
Liz	-11.859
▁AFTER	-11.8591
▁lurk	-11.8592
Rod	-11.8592
▁Mommy	-11.8593
▁jaw	-11.8593
Next	-11.8594
ppin	-11.8594
▁sexual	-11.8594
▁chuck	-11.8594
Tra	-11.8595
ket	-11.8596
▁twisted	-11.8596
ager	-11.8598
▁HQ	-11.8599
▁FOLLOWING	-11.8599
hon	-11.86
~~	-11.8603
Ron	-11.8604
▁accuracy	-11.8604
▁SMILE	-11.8604
cey	-11.8606
EEEE	-11.861
▁RI	-11.861
▁MIA	-11.8616
▁attending	-11.8619
pos	-11.862
▁Trynna	-11.862
▁acts	-11.862
▁mango	-11.862
HU	-11.8621
▁bts	-11.8621
▁Castle	-11.8626
▁pockets	-11.8627
▁\	-11.8627
▁ease	-11.8627
▁stank	-11.8629
▁sal	-11.863
davis	-11.863
_5	-11.8631
▁shocking	-11.8631
▁Cus	-11.8631
▁Type	-11.8632
▁Fact	-11.8632
▁wrapped	-11.8634
▁disturb	-11.8635
TF	-11.8635
▁comedy	-11.8635
▁smoked	-11.8636
▁Den	-11.8637
▁salute	-11.8639
eer	-11.8641
▁DI	-11.8641
lad	-11.8642
Anne	-11.8643
▁Wife	-11.8643
▁choke	-11.8644
▁cupcakes	-11.8644
▁Eddie	-11.8645
Break	-11.8647
fle	-11.865
▁TU	-11.8651
▁speechless	-11.8651
▁survived	-11.8652
▁Few	-11.8652
▁sip	-11.8652
▁bestfriends	-11.8654
▁havin	-11.8654
▁Hor	-11.8655
▁Cook	-11.8656
▁Contest	-11.8656
ake	-11.8657
Sin	-11.866
▁diff	-11.866
▁tastes	-11.8661
bbc	-11.8662
Nae	-11.8662
aru	-11.8662
▁Spice	-11.8664
▁hbd	-11.8665
aha	-11.8668
wich	-11.867
▁Lor	-11.867
▁dessert	-11.8671
OOO	-11.8673
mur	-11.8674
▁Dev	-11.8676
Everything	-11.8677
▁colours	-11.8677
▁industry	-11.8677
▁neighborhood	-11.8677
▁Lie	-11.8678
▁secrets	-11.8678
▁hike	-11.8678
▁homemade	-11.868
Cr	-11.868
▁GSW	-11.868
▁Hood	-11.8681
marketing	-11.8686
▁km	-11.8687
▁poo	-11.8687
FAV	-11.8687
onic	-11.8689
Jake	-11.8691
▁clever	-11.8692
pizza	-11.8693
uli	-11.8693
carter	-11.8695
pas	-11.8695
bies	-11.8697
ggin	-11.8698
▁Lex	-11.8699
ANCE	-11.8704
▁swollen	-11.8706
▁succeed	-11.8706
natural	-11.8707
Child	-11.8707
▁Karma	-11.8708
Loves	-11.8708
▁Dublin	-11.8709
ploy	-11.871
▁aha	-11.8714
▁STAY	-11.8716
fast	-11.8717
corp	-11.8717
▁Marco	-11.8718
▁tunes	-11.8718
▁sausage	-11.8718
▁fox	-11.8719
▁kat	-11.872
▁Repost	-11.8721
▁NP	-11.8721
▁Edition	-11.8722
▁climb	-11.8722
▁Sneak	-11.8723
)#	-11.8724
▁pint	-11.8725
▁Leg	-11.8727
Renee	-11.8728
Reg	-11.8729
Jai	-11.873
▁AW	-11.873
▁120	-11.8731
▁gaf	-11.8733
▁cable	-11.8736
▁stu	-11.8739
sigh	-11.874
▁surrounded	-11.874
▁crop	-11.8742
▁snatch	-11.8743
dick	-11.8745
uuuuuu	-11.8745
igh	-11.8746
▁chicks	-11.8747
▁approve	-11.8749
▁Rocky	-11.8749
▁henny	-11.8749
Dead	-11.875
bound	-11.875
Prod	-11.875
▁dummy	-11.875
▁Sin	-11.8752
arri	-11.8752
Tyler	-11.8753
Need	-11.8753
▁Roses	-11.8754
▁stands	-11.8757
ska	-11.8758
oro	-11.8758
▁urself	-11.8758
ich	-11.8762
Sy	-11.8762
▁author	-11.8762
▁boom	-11.8764
▁separate	-11.8764
▁slave	-11.8764
▁unnecessary	-11.8765
▁pays	-11.8765
▁Vol	-11.8766
Miami	-11.8766
▁states	-11.8768
▁Silver	-11.8769
▁cure	-11.8772
▁Knew	-11.8775
enna	-11.8776
▁Sara	-11.8777
▁Focus	-11.8778
▁lex	-11.8779
▁embrace	-11.878
▁bleach	-11.878
▁Liz	-11.878
KC	-11.8782
ago	-11.8784
▁wi	-11.8785
nip	-11.8786
fs	-11.8786
▁puff	-11.8786
▁FRIENDS	-11.8787
ape	-11.8791
▁Billy	-11.8793
▁Noah	-11.8793
▁sucking	-11.8794
▁pimp	-11.8794
***	-11.8796
▁cartoon	-11.8796
plo	-11.8796
▁spree	-11.8797
ARY	-11.8797
MENT	-11.8798
▁worn	-11.8799
lai	-11.88
2)	-11.8801
▁Val	-11.8801
orlando	-11.8802
▁Thailand	-11.8802
ACE	-11.8803
▁constant	-11.8804
▁Deal	-11.8809
▁buddies	-11.881
Ang	-11.8812
▁Pac	-11.8813
▁Sooooo	-11.8813
▁clouds	-11.8813
▁roller	-11.8816
▁Web	-11.8817
elly	-11.8819
WT	-11.8821
pass	-11.8822
▁Shooting	-11.8823
shae	-11.8824
▁Bus	-11.8824
sound	-11.8825
▁Ayesha	-11.8826
Chu	-11.8827
Did	-11.8827
tf	-11.8829
▁Bat	-11.883
▁Natural	-11.8837
rated	-11.8838
BBRAVESQUAD	-11.8839
▁dun	-11.8839
▁tempted	-11.8839
▁Steven	-11.8841
Ale	-11.8841
▁Scottish	-11.8841
nks	-11.8842
▁cope	-11.8842
▁counts	-11.8843
Fu	-11.8845
Breezy	-11.8846
bud	-11.8846
▁rugby	-11.8847
▁dy	-11.8848
Sleep	-11.8848
▁Comm	-11.8849
vp	-11.8849
▁ou	-11.8849
NB	-11.885
▁deny	-11.8851
Being	-11.8852
TLGOnEdge	-11.8854
drink	-11.8854
45:	-11.8854
Vol	-11.8856
▁Heading	-11.8856
OfThe	-11.8858
umble	-11.8859
tiff	-11.886
▁booking	-11.8862
ound	-11.8863
RU	-11.8863
▁travels	-11.8864
▁eternal	-11.8864
PLL	-11.8868
illustration	-11.8869
▁workin	-11.8869
Film	-11.8869
Gar	-11.887
words	-11.887
▁Suck	-11.887
lovers	-11.887
start	-11.8872
rra	-11.8873
leek	-11.8874
workout	-11.8875
▁YG	-11.8875
▁Note	-11.8877
eria	-11.8877
GC	-11.8879
qual	-11.8879
▁ski	-11.888
▁prep	-11.888
lovee	-11.888
▁handed	-11.8881
▁SL	-11.8881
▁skill	-11.8882
▁piercings	-11.8882
Friend	-11.8883
ground	-11.8885
Crazy	-11.8885
▁Gave	-11.8887
Full	-11.8887
▁yuh	-11.8887
ibo	-11.8887
ico	-11.8888
Dis	-11.8888
▁Turner	-11.8888
andi	-11.889
Moment	-11.8891
small	-11.8893
▁'16	-11.8895
▁lawd	-11.8896
nti	-11.8897
OOOOO	-11.8897
▁ooo	-11.8898
luna	-11.8898
garden	-11.8899
▁Panda	-11.89
pla	-11.8902
▁sigh	-11.8902
ESS	-11.8902
atu	-11.8904
▁standards	-11.8904
cb	-11.8904
▁wolf	-11.8905
vee	-11.8906
▁emotionally	-11.8906
hin	-11.8907
▁fourth	-11.8909
next	-11.8909
▁Rome	-11.8909
▁Indie	-11.8913
nina	-11.8913
▁Jean	-11.8914
oftheday	-11.8914
Dark	-11.8915
▁Tupac	-11.8915
▁KILL	-11.8916
▁superb	-11.8918
RB	-11.892
rone	-11.8923
▁photography	-11.8923
▁Julie	-11.8923
▁mute	-11.8924
▁spelled	-11.8927
▁allergies	-11.8928
▁Craig	-11.8929
▁Sophie	-11.893
▁Stars	-11.8932
rank	-11.8933
FollowBack	-11.8935
▁tw	-11.8936
▁Muslims	-11.8937
▁unlike	-11.8937
▁brag	-11.8938
InThe	-11.8938
▁scrap	-11.8939
▁hack	-11.8939
▁thi	-11.894
Year	-11.8941
▁hadn	-11.8941
▁retire	-11.8941
▁choosing	-11.8943
▁enemy	-11.8943
bluemix	-11.8944
▁BU	-11.8945
▁Henny	-11.8945
▁Uni	-11.8948
bryan	-11.8948
Khan	-11.8949
dx	-11.895
Sea	-11.895
▁Blow	-11.895
Promo	-11.8951
▁Fighting	-11.8952
▁Kit	-11.8952
▁bastard	-11.8954
▁Mountain	-11.8955
Cho	-11.8957
▁humanity	-11.8959
Die	-11.8959
California	-11.896
▁Levels	-11.8961
flowers	-11.8961
giving	-11.8962
DU	-11.8964
GrowingUpWith	-11.8965
▁turkey	-11.8966
para	-11.8966
fran	-11.897
hell	-11.897
Ree	-11.8971
▁Patiently	-11.8973
▁happily	-11.8973
ej	-11.8974
feeling	-11.8975
▁Cara	-11.8976
▁Record	-11.898
atter	-11.8984
▁Remind	-11.8984
FOR	-11.8984
▁curls	-11.8987
PI	-11.8991
sport	-11.8991
Sorry	-11.8993
Lovely	-11.8993
stray	-11.8993
▁suggestions	-11.8995
Listen	-11.8995
sean	-11.8996
▁Workout	-11.8999
Tim	-11.9
▁Tiller	-11.9002
JS	-11.9004
▁Spot	-11.9004
SN	-11.9005
williams	-11.9006
hugs	-11.9006
▁Bio	-11.901
HI	-11.901
▁tellin	-11.901
▁Lisa	-11.901
lala	-11.9011
CHE	-11.9012
▁floral	-11.9012
▁Michigan	-11.9017
Dem	-11.9017
cinema	-11.9018
ode	-11.902
▁boxing	-11.9021
odo	-11.9022
▁uzi	-11.9022
Train	-11.9023
▁sounded	-11.9024
por	-11.9024
▁MOM	-11.9024
▁geek	-11.9025
▁panel	-11.9025
CLE	-11.9025
nder	-11.9026
▁woken	-11.9028
Bree	-11.903
▁sem	-11.9033
▁valid	-11.9034
bry	-11.9035
▁twenty	-11.9035
▁jar	-11.9036
ification	-11.9036
hel	-11.9037
Global	-11.9037
carl	-11.9039
Rap	-11.9041
ushi	-11.9041
cli	-11.9042
▁250	-11.9042
Weekend	-11.9042
Hall	-11.9042
WX	-11.9043
piece	-11.9044
SF	-11.9047
▁titties	-11.9049
yas	-11.9049
▁Switzerland	-11.9049
BATB	-11.9049
▁Antonio	-11.905
comp	-11.9051
Ah	-11.9053
▁2000	-11.9053
▁Felt	-11.9054
sses	-11.9055
▁fry	-11.9055
LV	-11.9056
▁Were	-11.9056
▁AINT	-11.9056
▁offers	-11.9058
▁flights	-11.9058
uba	-11.9059
▁Test	-11.9061
▁Gates	-11.9062
Celebrity	-11.9064
!!!!!!!!	-11.9065
Addict	-11.9067
rid	-11.907
tai	-11.9071
▁SW	-11.9071
▁welp	-11.9071
imi	-11.9072
Goals	-11.9072
uki	-11.9073
villa	-11.9074
▁fri	-11.9074
Aaron	-11.9074
▁Skin	-11.9076
▁Larry	-11.9076
▁honored	-11.9078
▁Debating	-11.9079
kaa	-11.9079
rail	-11.908
▁Dads	-11.9081
▁jerk	-11.9082
▁£3	-11.9083
▁followback	-11.9084
urge	-11.9084
▁Hills	-11.9085
animal	-11.909
pes	-11.9093
ario	-11.9093
MR	-11.9094
┃	-11.9095
UD	-11.9096
▁LONG	-11.9097
▁mike	-11.9097
Future	-11.9098
SHARE	-11.9098
▁STAR	-11.9099
▁priceless	-11.9099
▁Race	-11.91
▁baddest	-11.91
▁mil	-11.91
daughter	-11.9101
cord	-11.9101
▁39	-11.9103
japan	-11.9105
Strong	-11.9108
shar	-11.9108
▁tax	-11.9108
▁Giroud	-11.9109
▁aggressive	-11.9109
Diva	-11.9109
▁Afternoon	-11.911
Cheer	-11.911
Snapchat	-11.9113
Er	-11.9114
chick	-11.9119
UH	-11.9119
▁impress	-11.9119
dess	-11.9121
87:	-11.9121
fect	-11.9121
TEAM	-11.9122
▁wya	-11.9123
GP	-11.9124
Low	-11.9124
▁impressive	-11.9125
luck	-11.9127
stars	-11.9127
▁Excuse	-11.9128
▁clothing	-11.9129
rf	-11.9129
▁sample	-11.913
▁presentation	-11.913
media	-11.9131
▁trees	-11.9132
▁sim	-11.9133
▁Becky	-11.9133
▁royal	-11.9136
▁allthat	-11.9137
lation	-11.9139
▁occasion	-11.9139
chel	-11.914
kir	-11.914
coco	-11.9141
RON	-11.9141
Pal	-11.9142
▁73	-11.9143
▁((	-11.9144
Respect	-11.9144
▁cmon	-11.9145
gard	-11.9147
cru	-11.9148
▁demo	-11.9155
▁chile	-11.9156
adventure	-11.9159
lbs	-11.916
hri	-11.916
▁champions	-11.9161
Mile	-11.9161
▁Alice	-11.9162
mariee	-11.9162
▁SI	-11.9163
umi	-11.9163
▁Chilling	-11.9168
▁Holiday	-11.9169
▁Op	-11.9169
▁sch	-11.9169
▁END	-11.917
▁gorg	-11.9171
Sara	-11.9171
▁#6	-11.9171
TeamFollowBack	-11.9173
▁spoon	-11.9173
▁Brad	-11.9177
▁CAVS	-11.9181
locks	-11.9185
▁90%	-11.9186
vicky	-11.9187
▁Upvote	-11.9188
▁Falling	-11.9189
Pol	-11.919
lace	-11.919
sunset	-11.919
▁Vibes	-11.9192
▁edc	-11.9195
Road	-11.9196
CRO	-11.9197
Selfie	-11.9199
▁teaser	-11.9199
Name	-11.9201
▁Dominican	-11.9201
▁prayed	-11.9201
▁Army	-11.9202
Raw	-11.9203
Comedy	-11.9206
▁Henry	-11.9206
Sho	-11.9208
oko	-11.9208
▁pushed	-11.9209
MT	-11.921
▁Allen	-11.9211
▁convos	-11.9216
▁OC	-11.9216
▁January	-11.9216
▁responsible	-11.9216
▁iced	-11.9218
▁Instead	-11.9219
being	-11.922
Believe	-11.9221
KKK	-11.9222
looks	-11.9222
Gr	-11.9226
Cute	-11.9226
Meet	-11.9226
▁Service	-11.9226
bbs	-11.9228
▁Bull	-11.9229
▁Wine	-11.923
bury	-11.9232
▁Problem	-11.9233
▁freaky	-11.9235
wtf	-11.9235
juan	-11.9238
dash	-11.9238
LG	-11.9239
▁dump	-11.9241
mates	-11.9241
▁Solid	-11.9246
▁spaghetti	-11.9247
▁bully	-11.9247
nique	-11.9249
foster	-11.9251
▁projects	-11.9251
▁disappointing	-11.9251
▁Creative	-11.9253
▁john	-11.9257
▁gifs	-11.9258
▁Eu	-11.9258
amanda	-11.9258
holiday	-11.9258
quan	-11.9263
easy	-11.9266
▁Jimin	-11.9268
tune	-11.9268
EVERY	-11.9268
▁Agree	-11.9271
SY	-11.9272
bless	-11.9273
▁hm	-11.9274
freak	-11.9275
▁Chase	-11.9276
mina	-11.9276
Sub	-11.9283
puppy	-11.9284
▁Matter	-11.9284
▁Busy	-11.9285
▁Nate	-11.9286
▁kiddo	-11.9286
HM	-11.9286
▁Jk	-11.9288
Hun	-11.9289
Mus	-11.9291
▁Global	-11.9291
aza	-11.9293
Original	-11.9294
▁ML	-11.9294
Ross	-11.9295
▁DOES	-11.9296
▁defo	-11.9296
▁72	-11.9297
Hoes	-11.9298
▁oml	-11.9299
track	-11.93
▁Fell	-11.9301
▁cal	-11.9303
▁Anti	-11.9303
▁ight	-11.9304
▁skins	-11.9306
arte	-11.9309
▁messi	-11.9309
▁Agreed	-11.931
▁whipped	-11.931
▁Loyalty	-11.931
Aint	-11.9318
TU	-11.9322
hra	-11.9323
tags	-11.9324
▁priorities	-11.9324
Sc	-11.9325
▁audience	-11.9325
▁stood	-11.9325
▁brunch	-11.9326
▁failure	-11.9326
▁raising	-11.9326
ges	-11.9327
▁urge	-11.9327
▁Clearly	-11.9329
stage	-11.933
sav	-11.9331
ige	-11.9331
▁Calvin	-11.9331
▁drained	-11.9331
▁Milk	-11.9332
Sean	-11.9333
▁military	-11.9334
▁Str	-11.934
bn	-11.934
▁Contact	-11.9341
▁footy	-11.9342
iser	-11.9343
▁chatting	-11.9348
ANA	-11.9348
JR	-11.9348
Short	-11.9357
▁novel	-11.9358
Bru	-11.9359
▁sides	-11.9364
Bernie	-11.9364
▁rolled	-11.9364
▁TI	-11.9365
TEN	-11.9365
▁tire	-11.9365
MAGA	-11.9368
▁raya	-11.9369
Instagram	-11.9369
▁06	-11.9371
▁AWESOME	-11.9372
▁95	-11.9372
Op	-11.9372
balls	-11.9373
Share	-11.9374
▁Tan	-11.9375
▁client	-11.9376
▁Detroit	-11.9376
▁Manila	-11.9377
▁Retweeted	-11.9377
▁HAD	-11.9382
trump	-11.9384
▁fucc	-11.9386
jb	-11.9387
▁forest	-11.9387
Right	-11.9387
▁eyeliner	-11.9388
Hol	-11.9388
▁recorded	-11.9388
rosa	-11.939
quez	-11.9391
▁refreshing	-11.9394
2016#	-11.9395
▁Thick	-11.9397
yp	-11.94
draw	-11.9402
erald	-11.9405
TOR	-11.9407
business	-11.9409
awesome	-11.9409
rissa	-11.9412
PIC	-11.9414
Sen	-11.9414
SHIRT	-11.9415
▁agency	-11.9416
▁Laugh	-11.9416
▁Haters	-11.9417
mich	-11.9419
HER	-11.942
vscocam	-11.9421
▁WELL	-11.9421
NU	-11.9424
aint	-11.9424
-12	-11.9424
JAY	-11.9425
▁Kno	-11.9425
pc	-11.9426
55:	-11.9426
▁gender	-11.9426
▁millions	-11.9426
ggggg	-11.9427
▁pole	-11.9428
▁MAD	-11.943
syd	-11.9432
▁cuh	-11.9432
gain	-11.9433
▁unicorn	-11.9433
anta	-11.9434
rome	-11.9435
▁CRYING	-11.9435
▁Lock	-11.9435
▁yourselves	-11.9436
▁darker	-11.9441
ariel	-11.9442
▁Brothers	-11.9442
Ban	-11.9442
▁repost	-11.9443
erica	-11.9444
▁growth	-11.9444
▁crave	-11.9446
noo	-11.945
▁Calum	-11.9451
OOOO	-11.9451
▁Midnight	-11.9453
must	-11.9453
▁requested	-11.9453
▁Juice	-11.9454
Mis	-11.9454
▁@____	-11.9454
rent	-11.9454
▁aswell	-11.9455
OMG	-11.9455
▁NW	-11.9458
▁ordering	-11.9458
▁WET	-11.9458
dean	-11.9458
cil	-11.9461
une	-11.9462
sid	-11.9462
indie	-11.9462
▁46	-11.9464
LosAngeles	-11.9466
▁approach	-11.9468
▁disappointment	-11.9468
▁pointless	-11.947
gurl	-11.9471
IYAM	-11.9472
PlayStation	-11.9473
▁charged	-11.9474
▁bbq	-11.9474
crew	-11.9474
Thomas	-11.9475
Papi	-11.9475
Open	-11.9476
▁cooler	-11.9479
▁rarely	-11.9479
victoria	-11.9481
▁SUB	-11.9481
▁enemies	-11.9482
▁Quality	-11.9482
▁concerts	-11.9482
▁Salute	-11.9482
▁relatable	-11.9483
▁cherry	-11.9483
▁Len	-11.9485
dub	-11.9487
▁centre	-11.9488
ugg	-11.949
▁stuffed	-11.9493
LB	-11.9497
▁Nature	-11.9497
▁cuddling	-11.9498
▁destiny	-11.9499
maybe	-11.95
Babe	-11.9502
▁craft	-11.9502
▁youCan	-11.9502
VR	-11.9504
Kel	-11.9505
TING	-11.9507
▁Award	-11.9508
▁Original	-11.9508
▁barber	-11.9509
CB	-11.951
Water	-11.951
elia	-11.9513
▁brudda	-11.9513
▁damage	-11.9515
jose	-11.9515
Bla	-11.9516
▁9.	-11.9517
▁Roger	-11.9517
▁stamp	-11.9517
ALE	-11.9518
▁Singapore	-11.9518
hd	-11.9519
river	-11.952
loc	-11.952
▁Incredible	-11.9521
nning	-11.9521
_____	-11.9522
▁@420	-11.9523
▁protein	-11.9524
thy	-11.9526
▁Marie	-11.953
oa	-11.9531
cid	-11.9534
▁Milan	-11.9534
oodle	-11.9536
step	-11.9537
ography	-11.9537
▁Yessss	-11.9539
madison	-11.9539
▁Gon	-11.954
▁hire	-11.9541
▁gd	-11.9541
▁Catching	-11.9542
royal	-11.9543
▁cared	-11.9543
▁Push	-11.9545
▁safely	-11.9548
▁Zi	-11.9548
Change	-11.9552
Nintendo	-11.9553
gia	-11.9555
Ur	-11.956
▁insurance	-11.9561
▁perhaps	-11.9561
mondaymotivation	-11.9561
▁creating	-11.9561
▁trading	-11.9561
▁POWER	-11.9562
Bomb	-11.9563
sexual	-11.9563
▁towel	-11.9564
hara	-11.9565
▁Au	-11.9567
HY	-11.9568
udi	-11.9569
Animal	-11.9569
nails	-11.957
sicPleaseRETWEET	-11.957
▁Highlight	-11.9572
EVER	-11.9572
Box	-11.9572
pil	-11.9573
Space	-11.9573
▁Chu	-11.9575
▁improve	-11.9575
ariana	-11.9576
▁anxious	-11.9577
Thi	-11.958
uka	-11.9583
▁mint	-11.9584
▁Adventure	-11.9585
▁quiz	-11.9585
AV	-11.9585
▁8/10	-11.9586
▁coke	-11.9589
mg	-11.959
▁kpop	-11.9592
gur	-11.9592
hoes	-11.9593
MAINEnatics	-11.9593
LoveWins	-11.9593
▁costume	-11.9593
amo	-11.9594
▁Vo	-11.9596
▁ORDER	-11.9598
▁Sebastian	-11.96
AppleMusic	-11.9601
gio	-11.9602
▁treasure	-11.9604
▁hahahahaha	-11.9605
followme	-11.9605
Jen	-11.9606
Nay	-11.9606
▁unit	-11.9607
▁Chloe	-11.9607
▁judging	-11.9609
▁tasty	-11.961
-11	-11.961
▁inspirational	-11.9611
▁Hurry	-11.9611
git	-11.9611
▁plain	-11.9614
Grand	-11.9615
▁ge	-11.9615
▁col	-11.9616
dn	-11.9618
rish	-11.9618
▁celeb	-11.9619
▁taxi	-11.9622
▁Jade	-11.9625
sville	-11.9625
▁Teen	-11.9626
ulation	-11.9626
Nee	-11.9629
HBD	-11.963
bv	-11.9631
▁inbox	-11.9632
Mill	-11.9633
Visit	-11.9634
▁Jeremy	-11.9634
▁Sunshine	-11.9635
▁sunrise	-11.9635
ride	-11.9636
▁behave	-11.9639
otic	-11.964
ault	-11.9641
▁hungover	-11.9642
▁curve	-11.9642
▁Mission	-11.9643
▁sonic	-11.9643
▁pause	-11.9645
Kam	-11.965
▁Roman	-11.9651
kg	-11.9652
▁physical	-11.9652
meg	-11.9653
legend	-11.9655
▁reunited	-11.9655
Pet	-11.9657
AskOrange	-11.9657
NER	-11.9658
Williams	-11.966
Spi	-11.966
▁^^	-11.9665
▁nana	-11.9666
▁blows	-11.9668
julie	-11.9668
▁shite	-11.9668
HHH	-11.967
▁SINGLE	-11.9673
▁Resort	-11.9674
▁flew	-11.9674
▁Human	-11.9675
miami	-11.9678
▁albums	-11.9679
▁Sigh	-11.968
▁reminding	-11.9681
▁Stream	-11.9682
inder	-11.9683
▁weigh	-11.9684
▁highest	-11.9684
▁ple	-11.9685
▁grades	-11.9685
Kyle	-11.9685
biz	-11.9686
▁spreading	-11.9686
shee	-11.969
▁pri	-11.969
shu	-11.969
▁error	-11.9692
styles	-11.9692
▁boxes	-11.9694
▁GIF	-11.9695
▁AP	-11.9696
90:	-11.9696
▁chew	-11.9698
▁Goddess	-11.9698
▁bowling	-11.9699
▁ultra	-11.97
holly	-11.97
▁digital	-11.9701
▁8.	-11.9701
ember	-11.9701
Freak	-11.9701
tsu	-11.9703
▁Fed	-11.9703
Cy	-11.9704
▁srsly	-11.9706
▁sweater	-11.9706
really	-11.9708
▁spec	-11.9708
▁charity	-11.9709
▁LOVES	-11.9709
▁blank	-11.971
▁Greece	-11.971
iAm	-11.971
Frank	-11.9712
▁Mas	-11.9713
Dave	-11.9713
ators	-11.9714
tuesday	-11.9715
▁Waffle	-11.9717
ctu	-11.9717
NCT	-11.972
ury	-11.9722
▁terrified	-11.9722
▁breast	-11.9722
▁cherish	-11.9722
▁prank	-11.9723
▁tease	-11.9723
▁flirting	-11.9723
▁Lin	-11.9723
Small	-11.9724
viv	-11.9724
RIC	-11.9725
Bl	-11.9726
▁DIS	-11.9729
▁claiming	-11.973
▁rage	-11.973
▁cosplay	-11.9731
CM	-11.9732
wang	-11.9733
▁Cash	-11.9734
Von	-11.9735
Gaming	-11.9736
▁fucken	-11.9736
▁promotion	-11.9738
daisy	-11.9738
kind	-11.9738
▁hum	-11.974
liv	-11.974
bike	-11.9741
aaaay	-11.9743
▁Colombia	-11.9744
Wish	-11.9745
▁Spirit	-11.9746
Peace	-11.9748
Sch	-11.9749
RK	-11.9749
▁june	-11.975
▁twit	-11.975
▁Amanda	-11.9751
▁threat	-11.9751
150	-11.9751
▁Folks	-11.9753
▁snoring	-11.9754
▁Tree	-11.9755
▁snakes	-11.9759
▁pills	-11.9762
Andrew	-11.9762
▁Press	-11.9763
hle	-11.9763
Cake	-11.9765
group	-11.9765
▁served	-11.9767
▁couples	-11.9768
▁harm	-11.9768
▁JADINE	-11.977
▁BRUH	-11.9771
Stand	-11.9773
haley	-11.9773
daa	-11.9773
▁presents	-11.9776
▁Jul	-11.9777
lac	-11.9778
▁indirect	-11.9779
gorgeous	-11.978
▁Simon	-11.9783
▁buff	-11.9783
Ice	-11.9784
urr	-11.9784
▁stats	-11.9786
▁Hella	-11.9786
duh	-11.9787
▁rappers	-11.9787
annie	-11.9788
▁HAIR	-11.9788
▁Ste	-11.9788
▁allat	-11.979
▁Learning	-11.979
▁stripper	-11.9792
YM	-11.9792
▁minded	-11.9792
WS	-11.9796
▁strawberries	-11.9797
▁stroke	-11.9799
▁SS	-11.9801
▁CT	-11.9802
▁Hugs	-11.9803
▁candidate	-11.9804
▁james	-11.9804
Under	-11.9805
Bur	-11.9806
▁supporter	-11.9806
Sad	-11.9806
rw	-11.9806
▁Buck	-11.9807
tian	-11.9809
robert	-11.9811
Anthony	-11.9813
▁des	-11.9815
Amazing	-11.9816
DES	-11.9817
WeLove	-11.9819
Body	-11.9819
▁ouch	-11.9819
Oo	-11.9822
promo	-11.9823
NewYork	-11.9826
flex	-11.9826
FU	-11.9827
▁signal	-11.9827
hx	-11.9828
zoo	-11.9829
▁SLEEP	-11.9831
▁helpful	-11.9832
▁goodies	-11.9836
▁essential	-11.9836
▁dish	-11.9837
chelle	-11.984
itter	-11.984
▁cycle	-11.9843
▁qua	-11.9844
km	-11.9845
▁MS	-11.9848
sur	-11.9849
▁Cc	-11.9849
Port	-11.985
Bill	-11.9852
rii	-11.9854
lbloggers	-11.9854
▁Ren	-11.9856
TP	-11.9859
▁Nigerian	-11.986
ayee	-11.986
▁ohhhh	-11.9861
▁Rooftop	-11.9862
▁Dia	-11.9862
ipe	-11.9864
▁Faith	-11.9864
▁Force	-11.9865
Nice	-11.9868
▁cinnamon	-11.9869
▁privilege	-11.9869
▁petition	-11.9869
Carter	-11.9869
kno	-11.987
rman	-11.9874
▁gray	-11.9875
ifi	-11.9877
spect	-11.9878
▁hush	-11.9878
▁fights	-11.9882
▁reckless	-11.9885
pai	-11.9887
▁Knicks	-11.9887
move	-11.9887
▁Fred	-11.9888
▁finesse	-11.9888
▁Lana	-11.9889
scape	-11.9891
icia	-11.9891
fff	-11.9891
▁Alone	-11.9892
▁overrated	-11.9893
▁Ser	-11.9895
once	-11.9895
▁Beast	-11.9895
inal	-11.9897
▁bish	-11.9897
▁ET	-11.9897
dol	-11.9898
gary	-11.9898
▁Iftar	-11.9899
jackson	-11.9899
▁Terry	-11.99
Tan	-11.99
1)	-11.9901
aji	-11.9902
bieber	-11.9903
▁FIFA	-11.9904
▁freezing	-11.9906
▁trail	-11.9909
dolan	-11.9909
other	-11.9912
▁Needs	-11.9912
▁string	-11.9912
lw	-11.9912
BY	-11.9913
▁Dub	-11.9913
ahhh	-11.9915
▁attacked	-11.9915
▁script	-11.9918
▁grandparents	-11.9918
▁paragraph	-11.9918
▁betta	-11.992
▁Megan	-11.992
▁Shouldn	-11.9923
LP	-11.9924
▁Later	-11.9924
OU	-11.9924
▁Tumblr	-11.9925
Magic	-11.9926
dotcom	-11.9927
ardo	-11.9927
▁Devil	-11.9929
Fla	-11.9934
ope	-11.9935
▁sandals	-11.9935
▁motivate	-11.9935
HipHop	-11.9936
eey	-11.9937
▁yoo	-11.9939
ACH	-11.9944
lips	-11.9945
MUSIC	-11.9946
▁preparing	-11.9951
sama	-11.9952
▁Rather	-11.9952
Pay	-11.9952
EXO	-11.9954
Ayee	-11.9955
▁Hours	-11.9957
▁Strawberry	-11.9958
Danny	-11.9959
▁watches	-11.9959
jaz	-11.9961
cycling	-11.9968
▁hehehe	-11.9968
▁kr	-11.9968
▁comm	-11.9968
▁fantasy	-11.9969
flow	-11.997
▁Stage	-11.997
▁Girlfriend	-11.9972
▁Age	-11.9973
sung	-11.9973
▁shaved	-11.9974
Ariana	-11.9975
throwback	-11.9977
▁fuss	-11.9978
lux	-11.9979
▁Tiffany	-11.998
future	-11.998
▁hihi	-11.9982
▁Beth	-11.9982
waiting	-11.9983
▁Yourself	-11.9983
▁Yelchin	-11.9984
▁Oakland	-11.9985
▁SUNDAY	-11.9987
IAM	-11.9987
▁beloved	-11.9987
▁Nation	-11.9987
tips	-11.9988
mming	-11.9991
▁Anne	-11.9992
sim	-11.9993
cre	-11.9993
hug	-11.9999
▁Epic	-11.9999
deja	-12
mii	-12
▁Albania	-12.0001
▁twat	-12.0001
MH	-12.0002
eto	-12.0003
▁Gemini	-12.0004
Famous	-12.0005
▁Wimbledon	-12.0007
truck	-12.0007
aaaaay	-12.0009
▁fame	-12.001
stance	-12.0012
Walk	-12.0012
MaMa	-12.0012
hahaha	-12.0013
lopez	-12.0014
▁liquid	-12.0015
hanna	-12.0016
nsfw	-12.0019
▁homeless	-12.002
▁pretending	-12.002
▁strangers	-12.0021
▁Umm	-12.0021
▁file	-12.0022
▁Charles	-12.0022
Putting	-12.0023
Swag	-12.0023
danielle	-12.0024
games	-12.0027
NJ	-12.0028
Kha	-12.0029
rty	-12.0029
rub	-12.0029
▁outcome	-12.003
▁witch	-12.0032
▁priority	-12.0034
▁chills	-12.0035
▁ego	-12.0036
mv	-12.0036
▁leather	-12.0037
▁twerk	-12.0038
yum	-12.0039
▁Hunter	-12.0039
▁healing	-12.004
couple	-12.0042
▁faded	-12.0042
▁Aug	-12.0044
june	-12.0045
malik	-12.0046
lina	-12.0047
Adore	-12.0049
▁Office	-12.005
▁1)	-12.005
Jackson	-12.0051
VER	-12.0051
▁lecture	-12.0051
▁squeeze	-12.0051
lean	-12.0051
Mama	-12.0053
mmie	-12.0053
Foster	-12.0054
▁swap	-12.0055
▁picks	-12.0057
Jose	-12.0057
▁zombie	-12.0057
▁smelling	-12.0058
▁taller	-12.0059
▁AD	-12.0059
FY	-12.006
▁Est	-12.006
org	-12.006
KEY	-12.0061
▁tent	-12.0063
urban	-12.0063
drama	-12.0066
▁jeep	-12.0069
▁typing	-12.0069
▁Dong	-12.0072
aku	-12.0076
voca	-12.0078
▁Wearing	-12.0079
▁Pablo	-12.008
jong	-12.0081
▁braid	-12.0083
lec	-12.0083
▁counter	-12.0084
Alyssa	-12.0084
▁WELCOME	-12.0084
▁papers	-12.0085
_2:	-12.0085
▁64	-12.0086
▁girlfriends	-12.0086
▁Mate	-12.0086
Gra	-12.0087
▁tagging	-12.0087
▁costs	-12.0087
▁smaller	-12.0087
LIFE	-12.0088
idi	-12.0088
Ran	-12.0091
JJ	-12.0091
▁sticking	-12.0092
shhh	-12.0093
Ace	-12.0094
▁cl	-12.0095
▁mm	-12.0095
▁Cro	-12.0095
ffin	-12.0096
lig	-12.0097
▁replaced	-12.0097
League	-12.0098
▁Gra	-12.0099
▁YAS	-12.0099
▁dumbest	-12.01
Honey	-12.01
▁tab	-12.0101
vor	-12.0101
▁ignorance	-12.0101
▁Mil	-12.0103
▁Wars	-12.0106
Tea	-12.0106
▁Anyways	-12.0109
▁Knowing	-12.0111
▁wifey	-12.0112
winning	-12.0113
rien	-12.0114
stagram	-12.0115
Female	-12.0115
aca	-12.0116
▁services	-12.0117
▁FEEL	-12.0117
▁Obviously	-12.0118
▁loml	-12.0119
▁tiring	-12.0119
str	-12.0119
▁crawl	-12.0122
spa	-12.0123
▁runner	-12.0124
uel	-12.0125
bestfriend	-12.0128
▁sadness	-12.0129
dude	-12.0132
▁ANOTHER	-12.0135
rise	-12.0135
fri	-12.0136
▁Fool	-12.0137
▁Bulls	-12.0138
▁highschool	-12.0139
abo	-12.0139
RIS	-12.0139
brianna	-12.014
▁former	-12.0142
NK	-12.0143
than	-12.0146
mz	-12.0146
▁Brooke	-12.0147
▁2011	-12.0148
▁66	-12.0149
owski	-12.015
▁lovelies	-12.015
shake	-12.015
▁Norman	-12.015
▁Celebrate	-12.0152
▁Joshua	-12.0152
▁Ramsey	-12.0152
diamond	-12.0154
Str	-12.0155
mira	-12.0157
▁Greys	-12.0158
blood	-12.0158
WCW	-12.0158
Cant	-12.0158
▁sticks	-12.016
Ber	-12.0161
▁Holland	-12.0161
reading	-12.0163
hart	-12.0164
-16	-12.0165
"?	-12.0165
▁taylor	-12.0167
Bull	-12.0168
▁peeped	-12.0169
myname	-12.0171
▁budget	-12.0171
▁Fla	-12.0172
▁root	-12.0172
rage	-12.0174
UNT	-12.0174
jh	-12.0176
Coffee	-12.0179
▁worship	-12.0181
Secret	-12.0183
MahoganyLOX	-12.0186
▁brownies	-12.0186
666	-12.0189
▁stepped	-12.0189
OneDirection	-12.0189
▁benefit	-12.019
pus	-12.019
boat	-12.019
▁Rn	-12.0191
df	-12.0192
▁UPDATE	-12.0192
?”	-12.0194
▁Twin	-12.0194
arry	-12.0195
nasty	-12.0197
nw	-12.02
SLFL	-12.02
TIN	-12.0201
bailey	-12.0201
▁KA	-12.0201
▁Pittsburgh	-12.0201
▁sarcastic	-12.0202
▁Flash	-12.0202
▁Sweden	-12.0202
afa	-12.0203
frantasticmonday	-12.0203
▁remote	-12.0203
raq	-12.0204
▁ac	-12.0205
▁Five	-12.0207
▁Channel	-12.0209
bria	-12.0209
▁Greatest	-12.021
▁central	-12.021
▁soda	-12.0212
ingham	-12.0215
▁iPad	-12.0215
hea	-12.0215
Cra	-12.0216
aww	-12.0216
▁TALK	-12.0217
▁Juan	-12.0217
anto	-12.0219
▁thnx	-12.022
Drew	-12.0222
▁hatred	-12.0222
▁Tommy	-12.0222
▁bend	-12.0223
▁Zoe	-12.0223
anie	-12.0224
▁TURN	-12.0224
DL	-12.0225
egan	-12.0226
▁Ghost	-12.0227
Ge	-12.023
▁Called	-12.023
alina	-12.023
▁Clear	-12.0231
▁grip	-12.0231
▁among	-12.0232
GU	-12.0233
▁Monica	-12.0236
/7	-12.0236
▁Dae	-12.0236
▁attacks	-12.0238
▁blah	-12.0238
▁mermaid	-12.0239
▁Wind	-12.0243
edit	-12.0243
▁chic	-12.0244
natalie	-12.0244
▁removed	-12.0244
amba	-12.0244
▁READ	-12.0244
Harris	-12.0245
▁queens	-12.0247
Kate	-12.0247
pls	-12.0248
julia	-12.025
tino	-12.0254
▁hidden	-12.0254
MtvSnapMexDanna	-12.0254
yb	-12.0254
▁ITUNES	-12.0254
▁DU	-12.0255
▁piano	-12.0255
▁electric	-12.0257
▁vo	-12.0257
khan	-12.026
web	-12.0261
pain	-12.0265
Sign	-12.0267
tw	-12.0268
austin	-12.0269
▁xD	-12.0269
▁Cy	-12.027
▁encourage	-12.027
▁periscope	-12.0271
▁Shin	-12.0271
▁cupcake	-12.0272
▁Player	-12.0273
▁Needed	-12.0275
▁greater	-12.0276
Kelly	-12.0276
zoe	-12.0276
▁THEN	-12.0278
▁scale	-12.0279
Jenn	-12.028
lifestyle	-12.028
▁Buddy	-12.0281
▁rally	-12.0281
justin	-12.0282
▁Tennessee	-12.0282
▁Source	-12.0284
▁HIT	-12.0285
▁oven	-12.0285
Trey	-12.0287
▁calendar	-12.0288
▁explode	-12.0288
feed	-12.0288
ARE	-12.0288
nzo	-12.0288
Italy	-12.0289
▁Steak	-12.0289
▁shook	-12.0291
▁workshop	-12.0291
WC	-12.0291
▁DIE	-12.0296
jacob	-12.0296
▁Wings	-12.0298
Lou	-12.0302
Hillary	-12.0304
▁HOLY	-12.0305
▁loop	-12.0305
▁criminal	-12.0305
because	-12.0306
▁dragged	-12.0306
▁Wide	-12.0306
bru	-12.0306
ior	-12.0307
fucking	-12.0307
▁Dec	-12.0308
ان	-12.0308
Eli	-12.0308
fx	-12.0312
▁Size	-12.0313
▁modern	-12.0313
tern	-12.0315
▁steam	-12.0316
▁mothers	-12.0318
2014	-12.0318
Amy	-12.032
▁Reasons	-12.032
▁Muhammad	-12.0321
bam	-12.0323
LongLive	-12.0325
▁GR	-12.0326
Vibes	-12.0328
▁demon	-12.0328
chester	-12.0329
vern	-12.0332
▁pace	-12.0335
▁weekly	-12.0337
Things	-12.0337
Ak	-12.0338
TIME	-12.0339
▁SWEET	-12.034
▁torture	-12.034
▁Thread	-12.034
wap	-12.0341
▁dp	-12.0343
allah	-12.0345
Champ	-12.0347
lur	-12.0348
▁om	-12.0351
event	-12.0352
TOP	-12.0352
Side	-12.0352
chef	-12.0353
▁spots	-12.0353
wash	-12.0354
been	-12.0357
Br	-12.0357
gor	-12.0358
▁unfair	-12.0358
▁hunting	-12.036
▁cuteness	-12.0361
Steel	-12.0361
▁Ge	-12.0362
Og	-12.0363
BOY	-12.0365
▁Prime	-12.0365
ThankYou	-12.0367
ality	-12.0367
▁gts	-12.0368
▁emo	-12.0369
lani	-12.037
louis	-12.0372
▁sack	-12.0373
▁Lies	-12.0373
▁artwork	-12.0374
▁powder	-12.0374
▁motion	-12.0374
Lea	-12.0375
▁2-0	-12.0375
▁selection	-12.0376
▁jimin	-12.0376
gif	-12.0378
Online	-12.0378
AIR	-12.0379
▁BYE	-12.038
OUR	-12.038
eman	-12.038
▁Tower	-12.038
cold	-12.038
▁feeding	-12.0381
kx	-12.0381
▁Coast	-12.0382
walker	-12.0383
▁Drama	-12.0384
▁bucks	-12.0385
▁Molly	-12.0385
Den	-12.0388
▁papi	-12.0388
▁Report	-12.0389
lissa	-12.039
▁FC	-12.0391
dec	-12.0391
▁insecure	-12.0391
▁underrated	-12.0392
nh	-12.0393
▁FAM	-12.0394
▁props	-12.0394
▁Superb	-12.0394
▁aid	-12.0394
▁poke	-12.0396
Juan	-12.0397
▁medical	-12.0398
▁hav	-12.0402
cruz	-12.0403
ais	-12.0403
▁Marc	-12.0404
stin	-12.0405
Blood	-12.0408
▁Bundles	-12.0409
▁professor	-12.0409
▁prosper	-12.0409
▁Frfr	-12.041
fla	-12.041
▁stolen	-12.0411
alon	-12.0412
42:	-12.0412
▁terrorist	-12.0412
sai	-12.0412
▁wax	-12.0413
▁snitch	-12.0413
▁jin	-12.0414
▁Chillin	-12.0415
REN	-12.042
isco	-12.0422
Destiny	-12.0422
▁Jonas	-12.0423
boro	-12.0424
ovo	-12.0425
destiny	-12.0426
utter	-12.0426
▁Views	-12.0428
ready	-12.0429
▁Fer	-12.043
pick	-12.043
▁dash	-12.0431
KR	-12.0432
zin	-12.0435
▁Jamaica	-12.0438
HELP	-12.0444
▁qui	-12.0445
▁ability	-12.0446
close	-12.0446
215	-12.0446
▁Drinking	-12.0447
FUL	-12.0449
emo	-12.0449
▁port	-12.0449
▁blink	-12.0451
▁gates	-12.0455
▁adopt	-12.0457
▁Breaking	-12.0458
tron	-12.0458
mainedcm	-12.0461
▁lobster	-12.0461
▁Champions	-12.0461
Celtic	-12.0463
lio	-12.0467
▁frog	-12.0467
▁pap	-12.0469
▁ASF	-12.0473
▁workers	-12.0475
sup	-12.0478
College	-12.0478
DaysToGo	-12.0478
▁opportunities	-12.0478
▁FYI	-12.0478
Fall	-12.0479
▁grammar	-12.0479
bbing	-12.0479
▁Harris	-12.0481
▁Asia	-12.0481
▁Candy	-12.0482
kd	-12.0484
lian	-12.0484
Word	-12.0484
Jacob	-12.0485
▁impression	-12.0486
zed	-12.0487
LAN	-12.0487
▁appropriate	-12.0487
GT	-12.049
count	-12.049
mone	-12.049
LEY	-12.049
▁seniors	-12.0491
▁Yass	-12.0494
cafe	-12.0494
▁Mass	-12.0495
EVERYONE	-12.0495
▁Oooh	-12.0496
▁Booty	-12.0496
▁Sturridge	-12.0496
▁expectations	-12.0497
▁splash	-12.0498
hunter	-12.0498
Eric	-12.0499
▁Feelings	-12.05
▁upstairs	-12.0501
llllll	-12.0501
▁Following	-12.0503
▁lee	-12.0504
Law	-12.0505
oshi	-12.0505
eau	-12.0505
Garcia	-12.0506
▁thumb	-12.0506
▁Farm	-12.0509
▁101	-12.051
▁partying	-12.0511
eyy	-12.0511
cun	-12.0514
growingupwith	-12.0514
▁Oscar	-12.0514
▁mat	-12.0515
▁2:30	-12.0515
▁Sunny	-12.0516
▁gap	-12.0517
▁Kenny	-12.0517
▁Thai	-12.0517
▁Trade	-12.0517
▁Alicia	-12.0518
everything	-12.0518
▁2.5	-12.0519
raj	-12.052
▁banging	-12.052
▁ky	-12.0521
▁Bloody	-12.0521
arch	-12.0521
▁missin	-12.0523
▁Xxx	-12.0523
▁Collection	-12.0523
▁JaDine	-12.0524
▁Slovakia	-12.0526
blake	-12.0528
ggs	-12.0529
▁mbf	-12.0529
UdtaPunjab	-12.0531
▁length	-12.0531
▁3:30	-12.0532
gre	-12.0534
LF	-12.0535
Zo	-12.0536
Dom	-12.0537
tress	-12.0539
▁chan	-12.0539
nf	-12.054
leo	-12.0541
▁Pops	-12.0544
▁Sucks	-12.0545
▁jan	-12.0546
▁Vic	-12.0547
NWSSevereTstorm	-12.0548
Argentina	-12.0549
country	-12.055
▁nba	-12.0551
ios	-12.0551
▁surprises	-12.0552
dent	-12.0553
astro	-12.0553
Kidd	-12.0553
Media	-12.0553
▁67	-12.0554
▁ru	-12.0554
▁Memories	-12.0557
▁qt	-12.0559
▁Serious	-12.0562
beau	-12.0562
▁EXACTLY	-12.0566
Bus	-12.0567
andrew	-12.0568
▁Deadass	-12.0569
AMA	-12.057
▁Sho	-12.0571
▁heartless	-12.0572
▁cri	-12.0572
golden	-12.0573
_0	-12.0574
kc	-12.0574
Kevin	-12.0577
VEN	-12.0578
▁Nw	-12.0579
lime	-12.0579
JP	-12.0579
▁global	-12.0579
▁BAE	-12.058
▁TR	-12.0581
vl	-12.0582
Blu	-12.0584
intendoTreehouse	-12.0584
StopYulin	-12.0584
Special	-12.0584
▁permission	-12.0584
Pimp	-12.0585
▁Patrick	-12.0585
▁Jenner	-12.0585
▁rin	-12.0585
▁53	-12.0586
Jer	-12.0587
▁Lewis	-12.0588
male	-12.0588
dhi	-12.059
Hop	-12.0591
gift	-12.0593
Sim	-12.0594
▁2)	-12.0596
▁£2	-12.0598
gum	-12.0599
▁broad	-12.0599
▁Wil	-12.06
lush	-12.0601
▁gaming	-12.0601
▁LITERALLY	-12.0601
▁combination	-12.0601
kook	-12.0601
bak	-12.0602
nto	-12.0602
▁bid	-12.0602
molly	-12.0605
lain	-12.0606
▁Arya	-12.0606
Manila	-12.0606
kyle	-12.0607
▁Health	-12.0608
▁GT	-12.0608
▁Ouch	-12.061
▁BOTH	-12.0611
pun	-12.0611
Az	-12.0612
shine	-12.0612
Card	-12.0613
▁Details	-12.0614
rius	-12.0616
▁Tips	-12.0616
▁suh	-12.0616
▁fuckboy	-12.0617
▁Practice	-12.0619
▁Dom	-12.0619
▁Understand	-12.0619
Think	-12.0621
▁toys	-12.0621
pher	-12.0622
local	-12.0622
▁Bomb	-12.0624
▁Gras	-12.0625
sus	-12.0625
kell	-12.0626
▁solve	-12.0626
▁sooooooo	-12.0626
▁iMessage	-12.0627
▁mami	-12.0627
▁TT	-12.063
▁lag	-12.0631
oya	-12.0632
Mah	-12.0633
▁Yoo	-12.0634
▁BOOM	-12.0635
▁leads	-12.0636
▁believing	-12.0637
▁independence	-12.0637
bai	-12.0637
▁meals	-12.0638
treat	-12.0638
gomez	-12.0639
▁WHOLE	-12.0639
▁Fran	-12.0641
UCK	-12.0642
Victoria	-12.0644
maddie	-12.0644
TN	-12.0646
oomf	-12.0647
▁entered	-12.065
jamie	-12.065
Years	-12.065
▁cups	-12.065
▁wala	-12.0651
▁weirdest	-12.0653
▁Each	-12.0654
▁rubbed	-12.0655
▁2-1	-12.0655
rach	-12.0656
THIS	-12.0659
▁nipples	-12.0659
▁Kee	-12.066
steve	-12.066
▁Wu	-12.0662
▁FM	-12.0663
▁Goes	-12.0665
▁soap	-12.0665
SSS	-12.0667
▁ram	-12.0668
▁slayed	-12.0668
prayfor	-12.0669
▁migraine	-12.0672
▁Popeyes	-12.0673
abe	-12.0673
▁GOALS	-12.0673
▁VI	-12.0674
▁Madison	-12.0674
▁strap	-12.0675
Funny	-12.0676
▁politicians	-12.0677
▁Daughter	-12.0679
▁MEET	-12.068
▁honesty	-12.068
▁Meeting	-12.0681
▁Andrea	-12.0683
▁:))	-12.0683
Inter	-12.0684
HR	-12.0686
▁bur	-12.0687
▁foreal	-12.0687
▁Dubai	-12.0688
▁plastic	-12.0691
▁gator	-12.0691
▁Sport	-12.0692
Nashville	-12.0692
instagram	-12.0692
rit	-12.0694
▁lightning	-12.0696
▁gene	-12.0698
▁dime	-12.0699
Lisa	-12.07
His	-12.07
Zi	-12.0701
▁Copa	-12.0701
▁highlighter	-12.0704
▁Row	-12.0704
▁standard	-12.0705
nde	-12.0706
▁Training	-12.0707
▁za	-12.0707
▁backyard	-12.0707
pose	-12.0708
▁perspective	-12.0708
▁Jealous	-12.0708
MK	-12.071
▁cur	-12.0714
▁castle	-12.0716
▁yum	-12.0717
▁Action	-12.0718
▁ahaha	-12.0719
▁foh	-12.0719
unk	-12.0721
▁boot	-12.0725
cream	-12.0726
SquareEnix	-12.0726
CanadianGP	-12.0726
Bel	-12.0728
▁suicide	-12.0733
Shy	-12.0735
▁bail	-12.0735
▁POST	-12.0735
ural	-12.0736
achi	-12.0737
aunt	-12.0737
▁Flight	-12.0738
MAR	-12.0739
▁Malaysia	-12.0739
Hoe	-12.0741
▁$7	-12.0742
Grace	-12.0744
LittleMix	-12.0744
▁membership	-12.0745
▁garage	-12.0745
▁Stanley	-12.0746
find	-12.0747
▁passionate	-12.0747
▁Sk	-12.0747
▁hunny	-12.0748
witch	-12.0748
▁woods	-12.075
mj	-12.075
Drink	-12.0751
dos	-12.0751
rse	-12.0751
CY	-12.0751
▁Magazine	-12.0752
tard	-12.0754
▁experienced	-12.0754
ddddd	-12.0754
cakes	-12.0756
▁bedtime	-12.0756
▁-6	-12.0758
▁Android	-12.0759
▁tone	-12.0762
Michelle	-12.0763
▁Costa	-12.0764
▁Caught	-12.0765
kor	-12.0766
ply	-12.0767
ChristinaGrimmie	-12.0769
▁Moved	-12.0769
shoot	-12.077
▁mcm	-12.0771
▁Deals	-12.0772
2%	-12.0773
says	-12.0773
▁Piece	-12.0773
▁caps	-12.0773
Brea	-12.0774
▁Crush	-12.0775
▁Iron	-12.0777
▁MTV	-12.078
▁DESTROYED	-12.078
MGWV	-12.078
glutenfree	-12.078
▁tooo	-12.0781
▁downstairs	-12.0781
Brand	-12.0781
▁bride	-12.0782
▁bon	-12.0784
kaay	-12.0785
sala	-12.0787
▁Skip	-12.0789
dun	-12.0789
▁Pal	-12.079
base	-12.0792
▁bones	-12.0792
▁Kel	-12.0795
▁blues	-12.0796
▁jawn	-12.0797
▁prettier	-12.0798
▁HAYES	-12.0798
▁surf	-12.0798
▁gin	-12.0799
▁impatient	-12.08
Gorgeous	-12.08
▁ri	-12.0801
▁Indonesia	-12.0802
▁01	-12.0803
Bank	-12.0804
ufc	-12.0805
▁beers	-12.0806
iden	-12.0806
▁Derek	-12.0807
▁Soccer	-12.0807
AAAAA	-12.0809
▁Fave	-12.081
ML	-12.0813
Rome	-12.0814
EAPlay	-12.0816
▁Shark	-12.0817
▁annual	-12.0817
iiiiii	-12.0817
▁Whoop	-12.0818
lim	-12.0819
Peter	-12.082
▁blend	-12.082
▁border	-12.0821
Shar	-12.0821
79:	-12.0823
▁Tip	-12.0823
▁cricket	-12.0823
Facts	-12.0825
▁swift	-12.0827
Most	-12.0827
GOD	-12.0827
itan	-12.0828
▁Front	-12.0829
Qua	-12.0832
topia	-12.0832
match	-12.0833
▁ideal	-12.0833
▁destination	-12.0834
▁acknowledge	-12.0834
mak	-12.0834
▁casual	-12.0834
▁swimsuit	-12.0835
surf	-12.0835
Ai	-12.0835
▁expression	-12.0836
eun	-12.0836
Nate	-12.0836
▁gate	-12.0837
mouth	-12.0838
uffy	-12.0839
2015	-12.084
▁addition	-12.084
Kick	-12.0841
▁engaged	-12.0842
ood	-12.0843
▁ESPN	-12.0843
▁52	-12.0843
LoveBTS	-12.0844
rant	-12.0845
▁ribs	-12.0847
spirit	-12.0847
drew	-12.085
Wheel	-12.085
Chile	-12.0851
mis	-12.0852
▁Stomach	-12.0852
aad	-12.0854
Festival	-12.0855
Rebel	-12.0855
stuff	-12.0856
▁omm	-12.0856
▁TRY	-12.0856
▁officer	-12.0858
lg	-12.0862
YYY	-12.0862
hack	-12.0863
▁louis	-12.0863
▁jun	-12.0866
YT	-12.0867
▁throws	-12.0868
▁dancer	-12.0869
▁Denver	-12.087
▁fought	-12.087
▁preaching	-12.0871
▁upside	-12.0871
Bell	-12.0872
Val	-12.0872
itation	-12.0874
▁beauties	-12.0874
▁notifs	-12.0875
▁theory	-12.0879
Ear	-12.0883
sten	-12.0883
hong	-12.0883
▁yaa	-12.0883
▁champagne	-12.0885
▁fl	-12.0885
▁Shane	-12.0886
Viva	-12.0886
using	-12.0886
▁farm	-12.0887
▁ginger	-12.0888
▁Weather	-12.0889
▁county	-12.0889
Cook	-12.0891
▁Tiger	-12.0891
▁bot	-12.0891
Dear	-12.0892
View	-12.0893
▁Page	-12.0894
▁Memphis	-12.0895
▁odds	-12.0895
▁106	-12.0898
Playboy	-12.0898
▁HELLO	-12.0899
▁pork	-12.09
grand	-12.0902
tara	-12.0904
erie	-12.0904
TVBreakoutStar	-12.0907
wizebot	-12.0907
Ubisoft	-12.0907
Fish	-12.0907
▁brighter	-12.0908
jasonis	-12.0908
▁retired	-12.0909
▁register	-12.091
Cali	-12.0911
▁lmk	-12.0914
dallas	-12.0919
▁Stra	-12.0919
▁gawd	-12.0919
uld	-12.0919
akin	-12.0919
Cur	-12.092
HT	-12.0921
gasm	-12.0921
▁Bryan	-12.0922
ody	-12.0923
rella	-12.0923
sab	-12.0924
jake	-12.0924
▁deals	-12.0924
▁activities	-12.0925
▁Pandora	-12.0925
CAM	-12.0926
▁Downtown	-12.0927
nette	-12.0927
▁niall	-12.0927
▁introduce	-12.0927
▁recover	-12.0928
jeff	-12.0928
▁msg	-12.0928
Month	-12.093
▁Purge	-12.093
/5	-12.0932
▁yeh	-12.0932
golf	-12.0932
leave	-12.0932
Any	-12.0934
weight	-12.0935
tastic	-12.0937
atta	-12.0937
▁cone	-12.0938
dl	-12.0941
▁Tech	-12.0942
uru	-12.0943
connect	-12.0943
▁Francisco	-12.0944
▁Stuff	-12.0944
▁RED	-12.0944
▁Slim	-12.0945
Mexico	-12.0947
breakfast	-12.0947
sir	-12.0948
▁NICE	-12.0948
▁AZ	-12.0949
▁Release	-12.0949
LIKE	-12.095
▁agent	-12.095
▁mountains	-12.095
annn	-12.095
lib	-12.0953
▁Bath	-12.0953
▁dive	-12.0953
▁Code	-12.0956
cket	-12.0958
▁matt	-12.096
grow	-12.0961
milk	-12.0961
▁associate	-12.0961
RisingStar	-12.0962
SVR	-12.0962
▁THAN	-12.0963
▁Farage	-12.0963
cott	-12.0964
Marcus	-12.0967
eez	-12.0967
▁ranch	-12.0968
spot	-12.0968
▁gud	-12.0968
Jun	-12.0969
▁accepting	-12.0969
▁Mars	-12.097
▁VID	-12.097
mika	-12.0972
Ac	-12.0974
Brandon	-12.0974
UA	-12.0975
allie	-12.0976
HP	-12.0977
cara	-12.0978
etic	-12.0979
▁yaaa	-12.098
aud	-12.098
▁latin	-12.098
▁COOL	-12.0981
▁marketing	-12.0982
▁irritate	-12.0982
special	-12.0984
WH	-12.0984
Hoop	-12.0986
rito	-12.0986
▁Hunt	-12.0986
▁Crack	-12.0988
▁takin	-12.0989
▁63	-12.099
tches	-12.0991
scope	-12.0992
▁Sim	-12.0993
▁Million	-12.0994
▁Peru	-12.0994
▁2010	-12.0994
Mont	-12.0997
▁numb	-12.0997
▁platform	-12.0998
▁gut	-12.0998
▁fluffy	-12.0999
RAY	-12.0999
▁depression	-12.0999
▁commentary	-12.1001
lix	-12.1002
ady	-12.1004
▁stans	-12.1005
▁user	-12.1006
ILY	-12.1011
shots	-12.1011
▁nailed	-12.1013
Euros	-12.1014
Hell	-12.1015
WynonnaEarp	-12.1017
▁tequila	-12.1017
Crew	-12.1017
rup	-12.1017
hia	-12.1017
▁banter	-12.1019
Nash	-12.1022
Because	-12.1022
brian	-12.1023
nty	-12.1025
Lets	-12.1025
▁commit	-12.1026
▁exception	-12.1028
▁witnessed	-12.1032
▁scrolling	-12.1034
▁Mus	-12.1034
linda	-12.1035
▁Shine	-12.1035
wed	-12.1036
xh	-12.1036
▁Aries	-12.1037
bass	-12.1038
▁sleepover	-12.1038
▁FOLLOWERS	-12.1039
▁allowing	-12.1039
▁gel	-12.1039
add	-12.1042
▁loan	-12.1043
kii	-12.1043
kyu	-12.1045
▁£50	-12.1046
lette	-12.1048
STA	-12.1048
▁Korean	-12.1048
▁stickers	-12.1049
Davis	-12.1051
▁sarcasm	-12.1051
▁neva	-12.1052
lucky	-12.1053
▁knife	-12.1054
▁reckon	-12.1054
▁banned	-12.1054
sister	-12.1055
Gotti	-12.1055
▁Soft	-12.1057
ACT	-12.1058
▁07	-12.1059
Ladies	-12.106
▁graphic	-12.106
heads	-12.1061
andre	-12.1062
DG	-12.1063
stein	-12.1064
Jewel	-12.1065
lucy	-12.1065
▁speaker	-12.1065
"@	-12.1066
dley	-12.1067
itis	-12.107
▁FIRE	-12.107
▁Whoa	-12.1071
▁Neither	-12.1072
▁diploma	-12.1072
AIL	-12.1072
▁rape	-12.1073
▁pouring	-12.1074
cm	-12.1077
niall	-12.1079
▁Ze	-12.1079
Stone	-12.1081
▁Knock	-12.1082
mmmmm	-12.1082
▁actin	-12.1083
▁BI	-12.1087
▁blush	-12.1088
cell	-12.1088
ection	-12.109
entrepreneur	-12.1091
▁creature	-12.1091
▁Greg	-12.1092
esa	-12.1092
▁catfish	-12.1093
▁clips	-12.1093
▁emotion	-12.1093
▁pea	-12.1094
Simone	-12.1096
▁Montana	-12.1097
▁Jared	-12.1098
▁fitting	-12.1098
▁shootings	-12.1098
85:	-12.1102
▁Info	-12.1102
▁NOS	-12.1103
raaa	-12.1103
▁slam	-12.1103
▁Blessing	-12.1104
DER	-12.1104
▁bleed	-12.1104
grey	-12.1105
▁wardrobe	-12.1109
▁hometown	-12.1109
▁youngin	-12.111
dder	-12.111
▁Police	-12.1111
Brooke	-12.1113
Faith	-12.1115
kenzie	-12.1115
▁Nails	-12.1116
▁Famous	-12.1117
▁inna	-12.1118
▁Claire	-12.1118
iddle	-12.1119
mara	-12.112
Philly	-12.1121
▁Target	-12.1124
.."	-12.1125
▁))	-12.1125
ashton	-12.1127
almighty	-12.1128
▁Smoking	-12.1129
MN	-12.1129
▁Speaking	-12.1129
Lexi	-12.1131
Vo	-12.1134
lav	-12.1135
▁Spurs	-12.1136
▁Brittany	-12.1136
▁cord	-12.1137
latina	-12.1138
oid	-12.1138
▁eff	-12.114
Master	-12.1143
blu	-12.1143
coo	-12.1145
thu	-12.1146
▁pl	-12.1147
hani	-12.1148
▁contain	-12.1151
▁specific	-12.1152
Overwatch	-12.1152
▁Britt	-12.1153
Amanda	-12.1153
▁Coz	-12.1153
▁Anderson	-12.116
▁JE	-12.1162
CheckYoSelf	-12.1165
▁flick	-12.1167
Gay	-12.1167
▁wha	-12.1167
lexx	-12.1173
▁Miller	-12.1174
Deep	-12.1175
▁yassss	-12.1176
Snap	-12.1177
▁Ry	-12.1178
▁$4	-12.1178
▁Springs	-12.1179
▁baking	-12.1179
▁MONEY	-12.1179
▁Freak	-12.118
▁holds	-12.118
cen	-12.118
▁creeping	-12.1181
FS	-12.1181
atti	-12.1183
▁tooooo	-12.1183
▁Premium	-12.1184
Capital	-12.1184
etter	-12.1185
Island	-12.1185
Wit	-12.1185
naaa	-12.1186
QUE	-12.1186
▁Ricky	-12.119
voice	-12.1191
Kids	-12.1193
▁Grad	-12.1193
Mer	-12.1195
4)	-12.1197
▁Sweat	-12.1197
▁Express	-12.1199
speak	-12.1202
▁significant	-12.1203
boxing	-12.1203
▁overnight	-12.1203
truth	-12.1203
cies	-12.1204
▁pronounce	-12.1206
▁consist	-12.121
Robert	-12.121
cou	-12.121
▁HIGH	-12.1211
llywood	-12.1213
▁Yassss	-12.1214
▁Alyssa	-12.1214
fre	-12.1215
▁Audi	-12.1217
▁Carter	-12.1217
▁stalker	-12.1218
▁sista	-12.1219
78:	-12.122
▁Wh	-12.122
▁wound	-12.1221
▁atmosphere	-12.1221
JE	-12.1223
Truth	-12.1223
▁MATTERS	-12.1224
nv	-12.1227
babyy	-12.1228
▁snapping	-12.1228
agi	-12.1229
mcm	-12.1229
▁muffin	-12.1229
bis	-12.123
spring	-12.1231
1000	-12.1232
▁Feat	-12.1233
▁pas	-12.1235
oor	-12.1235
Dani	-12.1237
▁Huh	-12.1238
und	-12.1239
jenna	-12.124
MOTAVATORMONDAY	-12.124
VerseVideo	-12.124
▁Destiny	-12.1242
Dy	-12.1243
breezy	-12.1243
▁ache	-12.1245
Les	-12.1245
▁Cody	-12.1245
COM	-12.1246
▁biscuits	-12.1247
▁ian	-12.1248
Social	-12.1248
aaron	-12.1248
ended	-12.125
▁hw	-12.125
▁vice	-12.125
Class	-12.1253
Speak	-12.1258
▁burst	-12.1258
kidd	-12.1258
▁Cast	-12.1259
▁shii	-12.1259
ThomasSanders	-12.1259
▁Yikes	-12.1259
▁Eagle	-12.1259
duce	-12.126
▁commitment	-12.126
▁Emoji	-12.1261
ohh	-12.1262
▁blunts	-12.1263
Bam	-12.1263
Roo	-12.1263
bath	-12.1264
▁whore	-12.1265
▁hiking	-12.1265
Texas	-12.1266
magazine	-12.1266
startup	-12.1266
nom	-12.1266
▁painted	-12.1266
▁tuesday	-12.1267
▁highkey	-12.1269
hyuk	-12.1271
▁PU	-12.1272
▁GU	-12.1273
▁assignments	-12.1273
▁Rangers	-12.1274
watching	-12.1274
GN	-12.1275
▁noo	-12.1275
▁2008	-12.1276
.50	-12.1276
ALDUBTrumpets	-12.1278
▁protest	-12.1279
▁stepping	-12.1281
alis	-12.1282
▁Clark	-12.1283
▁Riley	-12.1284
▁strict	-12.1284
Brad	-12.1284
PARTY	-12.1286
▁der	-12.1286
AO	-12.1287
Lake	-12.1291
kw	-12.1291
▁clients	-12.1292
▁Jet	-12.1293
raz	-12.1294
mess	-12.1295
▁Hai	-12.1295
▁core	-12.1295
Lin	-12.1297
berries	-12.1298
Lopez	-12.1298
▁jamming	-12.1299
▁interviews	-12.1301
Pac	-12.1302
toy	-12.1303
eves	-12.1305
NOW	-12.1306
▁Laying	-12.1306
ambo	-12.1306
▁Ave	-12.1307
cion	-12.1307
HL	-12.1309
▁il	-12.1311
▁Pier	-12.1312
EET	-12.1314
Jada	-12.1317
▁Typical	-12.1317
YearsOf	-12.1318
▁Forgive	-12.1321
▁dull	-12.1322
aff	-12.1322
▁Tb	-12.1323
niya	-12.1324
▁fellas	-12.1324
▁gar	-12.1324
TRU	-12.1325
▁KISS	-12.1325
▁Session	-12.1326
▁Angels	-12.1326
▁ace	-12.1326
found	-12.1327
▁Academy	-12.1328
▁sucker	-12.1329
▁snatched	-12.1329
▁ROCK	-12.1329
miller	-12.1331
▁Palm	-12.1331
athon	-12.1331
▁whisper	-12.1333
▁Fit	-12.1333
▁OKC	-12.1333
coach	-12.1334
Sid	-12.1336
▁Tor	-12.1337
vian	-12.1337
bali	-12.1338
▁Chief	-12.1339
▁bothering	-12.1339
▁web	-12.134
▁fro	-12.1341
▁fools	-12.1341
rier	-12.1342
jazz	-12.1342
Spark	-12.1343
SanL	-12.1344
▁honour	-12.1344
▁teenager	-12.1344
▁Gal	-12.1345
swift	-12.1346
Ger	-12.1347
▁Flat	-12.1348
▁bestest	-12.1349
▁Obsessed	-12.135
trash	-12.1353
▁cheesy	-12.1354
▁DVD	-12.1354
▁WH	-12.1354
COL	-12.1356
FP	-12.1356
▁Sing	-12.1358
itude	-12.1359
christ	-12.1359
▁47	-12.1361
Steve	-12.1362
▁carrying	-12.1363
chicken	-12.1364
▁tool	-12.1365
films	-12.1365
FD	-12.1367
▁NFL	-12.1367
▁task	-12.1368
Sab	-12.1369
▁whack	-12.1369
SIDE	-12.1371
BIG	-12.1371
oul	-12.1372
▁Month	-12.1372
▁receiving	-12.1373
▁vintage	-12.1375
▁performances	-12.1376
KN	-12.1379
▁uploaded	-12.138
▁attract	-12.138
response	-12.1381
▁Keith	-12.1381
▁metal	-12.1381
IND	-12.1381
▁twi	-12.1382
ammy	-12.1384
▁LIL	-12.1385
▁Robin	-12.1385
▁Connor	-12.1385
▁Moment	-12.1386
▁Breath	-12.1387
▁Auto	-12.1387
▁LMFAOOO	-12.1387
nikki	-12.139
rayersForOrlando	-12.1392
[...]
